{
  "version": "1.0",
  "truncation": null,
  "padding": null,
  "added_tokens": [
    {
      "id": 0,
      "content": "<PAD>",
      "single_word": false,
      "lstrip": false,
      "rstrip": false,
      "normalized": false,
      "special": true
    },
    {
      "id": 1,
      "content": "<UNK>",
      "single_word": false,
      "lstrip": false,
      "rstrip": false,
      "normalized": false,
      "special": true
    },
    {
      "id": 2,
      "content": "<BOS>",
      "single_word": false,
      "lstrip": false,
      "rstrip": false,
      "normalized": false,
      "special": true
    },
    {
      "id": 3,
      "content": "<EOS>",
      "single_word": false,
      "lstrip": false,
      "rstrip": false,
      "normalized": false,
      "special": true
    }
  ],
  "normalizer": null,
  "pre_tokenizer": {
    "type": "Whitespace"
  },
  "post_processor": {
    "type": "TemplateProcessing",
    "single": [
      {
        "SpecialToken": {
          "id": "<BOS>",
          "type_id": 0
        }
      },
      {
        "Sequence": {
          "id": "A",
          "type_id": 0
        }
      },
      {
        "SpecialToken": {
          "id": "<EOS>",
          "type_id": 0
        }
      }
    ],
    "pair": [
      {
        "SpecialToken": {
          "id": "<BOS>",
          "type_id": 0
        }
      },
      {
        "Sequence": {
          "id": "A",
          "type_id": 0
        }
      },
      {
        "SpecialToken": {
          "id": "<EOS>",
          "type_id": 0
        }
      },
      {
        "SpecialToken": {
          "id": "<BOS>",
          "type_id": 0
        }
      },
      {
        "Sequence": {
          "id": "B",
          "type_id": 0
        }
      },
      {
        "SpecialToken": {
          "id": "<EOS>",
          "type_id": 0
        }
      }
    ],
    "special_tokens": {
      "<BOS>": {
        "id": "<BOS>",
        "ids": [
          2
        ],
        "tokens": [
          "<BOS>"
        ]
      },
      "<EOS>": {
        "id": "<EOS>",
        "ids": [
          3
        ],
        "tokens": [
          "<EOS>"
        ]
      }
    }
  },
  "decoder": null,
  "model": {
    "type": "BPE",
    "dropout": null,
    "unk_token": null,
    "continuing_subword_prefix": null,
    "end_of_word_suffix": null,
    "fuse_unk": false,
    "byte_fallback": false,
    "ignore_merges": false,
    "vocab": {
      "<PAD>": 0,
      "<UNK>": 1,
      "<BOS>": 2,
      "<EOS>": 3,
      "!": 4,
      "\"": 5,
      "'": 6,
      "(": 7,
      ")": 8,
      ",": 9,
      "-": 10,
      ".": 11,
      "0": 12,
      "1": 13,
      "2": 14,
      "3": 15,
      "4": 16,
      "5": 17,
      "6": 18,
      "7": 19,
      "8": 20,
      "9": 21,
      ":": 22,
      ";": 23,
      "?": 24,
      "A": 25,
      "B": 26,
      "C": 27,
      "D": 28,
      "E": 29,
      "F": 30,
      "G": 31,
      "H": 32,
      "I": 33,
      "J": 34,
      "K": 35,
      "L": 36,
      "M": 37,
      "N": 38,
      "O": 39,
      "P": 40,
      "Q": 41,
      "R": 42,
      "S": 43,
      "T": 44,
      "U": 45,
      "V": 46,
      "W": 47,
      "X": 48,
      "Y": 49,
      "Z": 50,
      "`": 51,
      "a": 52,
      "b": 53,
      "c": 54,
      "d": 55,
      "e": 56,
      "f": 57,
      "g": 58,
      "h": 59,
      "i": 60,
      "j": 61,
      "k": 62,
      "l": 63,
      "m": 64,
      "n": 65,
      "o": 66,
      "p": 67,
      "q": 68,
      "r": 69,
      "s": 70,
      "t": 71,
      "u": 72,
      "v": 73,
      "w": 74,
      "x": 75,
      "y": 76,
      "z": 77,
      "Ç": 78,
      "Ö": 79,
      "Ü": 80,
      "ç": 81,
      "ö": 82,
      "ü": 83,
      "Ğ": 84,
      "ğ": 85,
      "İ": 86,
      "ı": 87,
      "Ş": 88,
      "ş": 89,
      "la": 90,
      "er": 91,
      "in": 92,
      "an": 93,
      "ir": 94,
      "en": 95,
      "ın": 96,
      "il": 97,
      "ar": 98,
      "de": 99,
      "lar": 100,
      "ma": 101,
      "da": 102,
      "ya": 103,
      "ek": 104,
      "el": 105,
      "et": 106,
      "ak": 107,
      "or": 108,
      "un": 109,
      "ler": 110,
      "iz": 111,
      "al": 112,
      "ve": 113,
      "bir": 114,
      "ır": 115,
      "ik": 116,
      "on": 117,
      "es": 118,
      "ol": 119,
      "em": 120,
      "lan": 121,
      "im": 122,
      "iy": 123,
      "ka": 124,
      "is": 125,
      "ta": 126,
      "sa": 127,
      "iş": 128,
      "lı": 129,
      "ur": 130,
      "ün": 131,
      "ed": 132,
      "bil": 133,
      "ul": 134,
      "sı": 135,
      "le": 136,
      "ür": 137,
      "ha": 138,
      "iç": 139,
      "ba": 140,
      "it": 141,
      "ım": 142,
      "ların": 143,
      "ız": 144,
      "ış": 145,
      "ara": 146,
      "ey": 147,
      "li": 148,
      "dan": 149,
      "ön": 150,
      "um": 151,
      "sın": 152,
      "ok": 153,
      "tı": 154,
      "den": 155,
      "ra": 156,
      "mak": 157,
      "ları": 158,
      "için": 159,
      "di": 160,
      "yap": 161,
      "gö": 162,
      "du": 163,
      "dı": 164,
      "üz": 165,
      "bu": 166,
      "ini": 167,
      "ay": 168,
      "inde": 169,
      "ıl": 170,
      "ine": 171,
      "ti": 172,
      "te": 173,
      "ce": 174,
      "ki": 175,
      "man": 176,
      "ile": 177,
      "dır": 178,
      "st": 179,
      "iler": 180,
      "ük": 181,
      "yor": 182,
      "uz": 183,
      "iniz": 184,
      "tır": 185,
      "ık": 186,
      "eler": 187,
      "ver": 188,
      "ca": 189,
      "leri": 190,
      "dir": 191,
      "se": 192,
      "mek": 193,
      "ında": 194,
      "bilir": 195,
      "üm": 196,
      "gi": 197,
      "esi": 198,
      "at": 199,
      "ğı": 200,
      "iyor": 201,
      "ger": 202,
      "gör": 203,
      "az": 204,
      "baş": 205,
      "olar": 206,
      "gel": 207,
      "cak": 208,
      "yan": 209,
      "ist": 210,
      "inin": 211,
      "onu": 212,
      "kar": 213,
      "cı": 214,
      "lik": 215,
      "tir": 216,
      "ken": 217,
      "me": 218,
      "olarak": 219,
      "ola": 220,
      "Bu": 221,
      "ği": 222,
      "üş": 223,
      "oğ": 224,
      "lem": 225,
      "yı": 226,
      "kul": 227,
      "oldu": 228,
      "len": 229,
      "öz": 230,
      "ması": 231,
      "çok": 232,
      "değ": 233,
      "ip": 234,
      "bi": 235,
      "lık": 236,
      "..": 237,
      "bul": 238,
      "kullan": 239,
      "ge": 240,
      "ut": 241,
      "am": 242,
      "iye": 243,
      "son": 244,
      "ğın": 245,
      "uy": 246,
      "uş": 247,
      "san": 248,
      "ül": 249,
      "ev": 250,
      "olan": 251,
      "ter": 252,
      "laş": 253,
      "gün": 254,
      "sun": 255,
      "yer": 256,
      "çık": 257,
      "ci": 258,
      "za": 259,
      "tan": 260,
      "yük": 261,
      "eden": 262,
      "oy": 263,
      "lama": 264,
      "dur": 265,
      "ro": 266,
      "cek": 267,
      "her": 268,
      "daha": 269,
      "aş": 270,
      "lu": 271,
      "op": 272,
      "ede": 273,
      "imiz": 274,
      "var": 275,
      "sür": 276,
      "siz": 277,
      "mış": 278,
      "alış": 279,
      "olduğ": 280,
      "kad": 281,
      "iya": 282,
      "kur": 283,
      "sında": 284,
      "unu": 285,
      "der": 286,
      "kı": 287,
      "çek": 288,
      "gerek": 289,
      "tar": 290,
      "bel": 291,
      "kal": 292,
      "eye": 293,
      "ör": 294,
      "sit": 295,
      "lerin": 296,
      "met": 297,
      "şı": 298,
      "bü": 299,
      "na": 300,
      "sağ": 301,
      "yıl": 302,
      "konu": 303,
      "miş": 304,
      "gibi": 305,
      "geç": 306,
      "öy": 307,
      "ne": 308,
      "olma": 309,
      "yen": 310,
      "ına": 311,
      "eş": 312,
      "ından": 313,
      "ili": 314,
      "ad": 315,
      "üzer": 316,
      "fa": 317,
      "cu": 318,
      "çalış": 319,
      "zaman": 320,
      "önem": 321,
      "yon": 322,
      "20": 323,
      "om": 324,
      "as": 325,
      "ih": 326,
      "siniz": 327,
      "gü": 328,
      "yaş": 329,
      "makta": 330,
      "ama": 331,
      "kan": 332,
      "ımız": 333,
      "ru": 334,
      "edi": 335,
      "men": 336,
      "edir": 337,
      "şek": 338,
      "ot": 339,
      "yar": 340,
      "ürk": 341,
      "su": 342,
      "tek": 343,
      "leş": 344,
      "öl": 345,
      "hal": 346,
      "yön": 347,
      "ilen": 348,
      "doğ": 349,
      "ça": 350,
      "ıyor": 351,
      "lara": 352,
      "diğ": 353,
      "isi": 354,
      "sor": 355,
      "inden": 356,
      "yla": 357,
      "Türk": 358,
      "larını": 359,
      "uyg": 360,
      "ber": 361,
      "düş": 362,
      "mesi": 363,
      "tak": 364,
      "kadar": 365,
      "ez": 366,
      "tara": 367,
      "eğ": 368,
      "bulun": 369,
      "veya": 370,
      "bilirsiniz": 371,
      "larda": 372,
      "ren": 373,
      "bile": 374,
      "yaz": 375,
      "mes": 376,
      "tur": 377,
      "lü": 378,
      "alan": 379,
      "mekt": 380,
      "sonra": 381,
      "aç": 382,
      "iyle": 383,
      "os": 384,
      "ını": 385,
      "art": 386,
      "yapı": 387,
      "dev": 388,
      "tem": 389,
      "maktadır": 390,
      "hak": 391,
      "sah": 392,
      "ap": 393,
      "ark": 394,
      "ise": 395,
      "kiş": 396,
      "sal": 397,
      "kay": 398,
      "eli": 399,
      "iyet": 400,
      "pro": 401,
      "si": 402,
      "gen": 403,
      "karşı": 404,
      "belir": 405,
      "taraf": 406,
      "let": 407,
      "işlem": 408,
      "sek": 409,
      "...": 410,
      "şekil": 411,
      "imi": 412,
      "maya": 413,
      "lerini": 414,
      "tür": 415,
      "orta": 416,
      "özel": 417,
      "dik": 418,
      "iyi": 419,
      "mektedir": 420,
      "be": 421,
      "unun": 422,
      "edil": 423,
      "lam": 424,
      "kap": 425,
      "zan": 426,
      "ada": 427,
      "etk": 428,
      "dığı": 429,
      "top": 430,
      "arı": 431,
      "sel": 432,
      "yeni": 433,
      "izmet": 434,
      "sını": 435,
      "göre": 436,
      "ster": 437,
      "yüz": 438,
      "00": 439,
      "ının": 440,
      "şekilde": 441,
      "uk": 442,
      "bak": 443,
      "ten": 444,
      "içer": 445,
      "büyük": 446,
      "unda": 447,
      "para": 448,
      "Bir": 449,
      "durum": 450,
      "sına": 451,
      "gir": 452,
      "har": 453,
      "for": 454,
      "insan": 455,
      "va": 456,
      "gerçek": 457,
      "lere": 458,
      "hizmet": 459,
      "his": 460,
      "ret": 461,
      "ceğ": 462,
      "rı": 463,
      "yol": 464,
      "ğını": 465,
      "mu": 466,
      "yatır": 467,
      "ye": 468,
      "sen": 469,
      "alt": 470,
      "han": 471,
      "oluş": 472,
      "res": 473,
      "kat": 474,
      "öğ": 475,
      "hem": 476,
      "ser": 477,
      "neden": 478,
      "kazan": 479,
      "ilg": 480,
      "fark": 481,
      "re": 482,
      "larının": 483,
      "ağ": 484,
      "göster": 485,
      "yak": 486,
      "değil": 487,
      "istem": 488,
      "tık": 489,
      "arak": 490,
      "ven": 491,
      "An": 492,
      "eleri": 493,
      "oyun": 494,
      "kü": 495,
      "aret": 496,
      "ınız": 497,
      "larına": 498,
      "bilg": 499,
      "ben": 500,
      "tüm": 501,
      "sat": 502,
      "seç": 503,
      "kon": 504,
      "bağ": 505,
      "ah": 506,
      "kend": 507,
      "eyi": 508,
      "elik": 509,
      "larında": 510,
      "uygu": 511,
      "Türkiye": 512,
      "tü": 513,
      "değiş": 514,
      "değer": 515,
      "tr": 516,
      "düz": 517,
      "faz": 518,
      "ban": 519,
      "yal": 520,
      "kes": 521,
      "sahip": 522,
      "ileri": 523,
      "mer": 524,
      "olduğu": 525,
      "id": 526,
      "say": 527,
      "lat": 528,
      "yatırım": 529,
      "esinde": 530,
      "mi": 531,
      "öyle": 532,
      "haz": 533,
      "kullanı": 534,
      "tarafından": 535,
      "açık": 536,
      "erek": 537,
      "ürün": 538,
      "önemli": 539,
      "nin": 540,
      "sız": 541,
      "biz": 542,
      "ilk": 543,
      "mü": 544,
      "lığı": 545,
      "fazla": 546,
      "böl": 547,
      "nı": 548,
      "tes": 549,
      "alı": 550,
      "sır": 551,
      "dün": 552,
      "sıl": 553,
      "if": 554,
      "sev": 555,
      "başla": 556,
      "etir": 557,
      "olu": 558,
      "iyat": 559,
      "ecek": 560,
      "ran": 561,
      "una": 562,
      "geliş": 563,
      "hat": 564,
      "arasında": 565,
      "mem": 566,
      "ep": 567,
      "bet": 568,
      "kor": 569,
      "ic": 570,
      "mo": 571,
      "yat": 572,
      "dür": 573,
      "mal": 574,
      "süre": 575,
      "mı": 576,
      "getir": 577,
      "lerde": 578,
      "tik": 579,
      "us": 580,
      "meye": 581,
      "Al": 582,
      "olay": 583,
      "yet": 584,
      "üc": 585,
      "ımı": 586,
      "dü": 587,
      "güven": 588,
      "leştir": 589,
      "şey": 590,
      "lardan": 591,
      "mil": 592,
      "likle": 593,
      "eh": 594,
      "oz": 595,
      "sağla": 596,
      "bek": 597,
      "ğu": 598,
      "dık": 599,
      "yapıl": 600,
      "diği": 601,
      "ket": 602,
      "19": 603,
      "av": 604,
      "hes": 605,
      "ocu": 606,
      "devam": 607,
      "ika": 608,
      "bin": 609,
      "söz": 610,
      "net": 611,
      "gra": 612,
      "farklı": 613,
      "tal": 614,
      "ızı": 615,
      "tut": 616,
      "göz": 617,
      "dış": 618,
      "düşün": 619,
      "ilgili": 620,
      "siy": 621,
      "etti": 622,
      "yın": 623,
      "daki": 624,
      "ülk": 625,
      "ala": 626,
      "olduğunu": 627,
      "dım": 628,
      "diğer": 629,
      "sistem": 630,
      "ef": 631,
      "oj": 632,
      "kez": 633,
      "doğru": 634,
      "yok": 635,
      "sin": 636,
      "ex": 637,
      "içinde": 638,
      "zor": 639,
      "oş": 640,
      "öğren": 641,
      "olur": 642,
      "can": 643,
      "birlik": 644,
      "lerinin": 645,
      "liğ": 646,
      "ulaş": 647,
      "iyasa": 648,
      "por": 649,
      "nasıl": 650,
      "çalışma": 651,
      "alın": 652,
      "eb": 653,
      "stan": 654,
      "ab": 655,
      "maz": 656,
      "yorum": 657,
      "lendir": 658,
      "fiyat": 659,
      "Ay": 660,
      "inizi": 661,
      "liği": 662,
      "muş": 663,
      "tör": 664,
      "lerine": 665,
      "kr": 666,
      "iki": 667,
      "arka": 668,
      "mam": 669,
      "dön": 670,
      "müş": 671,
      "par": 672,
      "sayı": 673,
      "sonu": 674,
      "tu": 675,
      "ib": 676,
      "üret": 677,
      "cel": 678,
      "emiz": 679,
      "tarih": 680,
      "İn": 681,
      "üs": 682,
      "kim": 683,
      "önce": 684,
      "baz": 685,
      "aynı": 686,
      "tas": 687,
      "mey": 688,
      "dece": 689,
      "ünde": 690,
      "eder": 691,
      "caktır": 692,
      "fir": 693,
      "ediyor": 694,
      "larla": 695,
      "hakk": 696,
      "larımız": 697,
      "irket": 698,
      "oloj": 699,
      "olmak": 700,
      "rak": 701,
      "sının": 702,
      "piyasa": 703,
      "per": 704,
      "dav": 705,
      "ğınız": 706,
      "ilerin": 707,
      "hangi": 708,
      "hiç": 709,
      "birlikte": 710,
      "yüksek": 711,
      "nak": 712,
      "bur": 713,
      "duy": 714,
      "çocu": 715,
      "itim": 716,
      "dönem": 717,
      "tekn": 718,
      "yaptı": 719,
      "çe": 720,
      "yapa": 721,
      "ediğ": 722,
      "söy": 723,
      "gelen": 724,
      "üst": 725,
      "ilik": 726,
      "lah": 727,
      "malı": 728,
      "isinde": 729,
      "dünya": 730,
      "10": 731,
      "gı": 732,
      "dem": 733,
      "düzen": 734,
      "alık": 735,
      "ulu": 736,
      "oluştur": 737,
      "mez": 738,
      "kaç": 739,
      "nın": 740,
      "eket": 741,
      "gu": 742,
      "lerinde": 743,
      "olması": 744,
      "hazır": 745,
      "uygun": 746,
      "vur": 747,
      "For": 748,
      "Baş": 749,
      "ihti": 750,
      "oran": 751,
      "tıl": 752,
      "daş": 753,
      "kö": 754,
      "deki": 755,
      "yazı": 756,
      "din": 757,
      "açı": 758,
      "olduk": 759,
      "tif": 760,
      "unuz": 761,
      "sak": 762,
      "iliş": 763,
      "raf": 764,
      "ans": 765,
      "diye": 766,
      "tel": 767,
      "yönet": 768,
      "ku": 769,
      "mıştır": 770,
      "kullanıl": 771,
      "ünü": 772,
      "üzel": 773,
      "sunda": 774,
      "sadece": 775,
      "kendi": 776,
      "det": 777,
      "işim": 778,
      "min": 779,
      "bahis": 780,
      "ilir": 781,
      "kolay": 782,
      "sıra": 783,
      "pay": 784,
      "lerden": 785,
      "Her": 786,
      "bit": 787,
      "üzerinde": 788,
      "hayat": 789,
      "çı": 790,
      "şirket": 791,
      "manız": 792,
      "tic": 793,
      "ide": 794,
      "dığ": 795,
      "larından": 796,
      "fer": 797,
      "tün": 798,
      "hız": 799,
      "genel": 800,
      "lanan": 801,
      "eşit": 802,
      "yapılan": 803,
      "bilecek": 804,
      "dest": 805,
      "biri": 806,
      "haf": 807,
      "manın": 808,
      "sından": 809,
      "yara": 810,
      "anla": 811,
      "hareket": 812,
      "İş": 813,
      "uzun": 814,
      "enin": 815,
      "destek": 816,
      "üzere": 817,
      "hakkında": 818,
      "görün": 819,
      "ana": 820,
      "dil": 821,
      "dığını": 822,
      "etmek": 823,
      "ici": 824,
      "tam": 825,
      "luk": 826,
      "saat": 827,
      "dak": 828,
      "başka": 829,
      "pa": 830,
      "Ha": 831,
      "ifa": 832,
      "bun": 833,
      "lıyor": 834,
      "çev": 835,
      "uygulama": 836,
      "eğitim": 837,
      "sık": 838,
      "tiğ": 839,
      "lo": 840,
      "siyon": 841,
      "çıkar": 842,
      "sanız": 843,
      "üy": 844,
      "güzel": 845,
      "biliyor": 846,
      "sta": 847,
      "çocuk": 848,
      "lük": 849,
      "rıca": 850,
      "konuş": 851,
      "ihtiya": 852,
      "miştir": 853,
      "haber": 854,
      "güç": 855,
      "bazı": 856,
      "to": 857,
      "kin": 858,
      "sorun": 859,
      "sınız": 860,
      "mayı": 861,
      "ayı": 862,
      "mut": 863,
      "Ar": 864,
      "gön": 865,
      "201": 866,
      "ifade": 867,
      "karar": 868,
      "lerle": 869,
      "şeh": 870,
      "üç": 871,
      "Er": 872,
      "ebilir": 873,
      "rek": 874,
      "uyor": 875,
      "Forex": 876,
      "müşter": 877,
      "Ancak": 878,
      "belirt": 879,
      "Kur": 880,
      "nok": 881,
      "fil": 882,
      "Öz": 883,
      "inan": 884,
      "lana": 885,
      "ğer": 886,
      "anlam": 887,
      "gerçekleştir": 888,
      "En": 889,
      "cih": 890,
      "yardım": 891,
      "birçok": 892,
      "ücret": 893,
      "bilgi": 894,
      "bulunan": 895,
      "içerisinde": 896,
      "ternet": 897,
      "izi": 898,
      "meler": 899,
      "bah": 900,
      "emek": 901,
      "adres": 902,
      "bileceğ": 903,
      "üne": 904,
      "şu": 905,
      "gram": 906,
      "nokta": 907,
      "dikkat": 908,
      "lerinden": 909,
      "kanı": 910,
      "ağı": 911,
      "ortaya": 912,
      "lim": 913,
      "mev": 914,
      "elde": 915,
      "ira": 916,
      "tercih": 917,
      "osyal": 918,
      "çöz": 919,
      "düğ": 920,
      "ünkü": 921,
      "kır": 922,
      "lerimiz": 923,
      "ümüz": 924,
      "kün": 925,
      "taşı": 926,
      "ko": 927,
      "kabul": 928,
      "bır": 929,
      "esine": 930,
      "pek": 931,
      "eyen": 932,
      "sebe": 933,
      "ri": 934,
      "başarı": 935,
      "üyor": 936,
      "kullanıcı": 937,
      "zer": 938,
      "ley": 939,
      "önc": 940,
      "nun": 941,
      "del": 942,
      "lım": 943,
      "oku": 944,
      "web": 945,
      "eme": 946,
      "dar": 947,
      "hesap": 948,
      "med": 949,
      "sav": 950,
      "kadın": 951,
      "ticaret": 952,
      "sam": 953,
      "olabilir": 954,
      "tasar": 955,
      "pan": 956,
      "paylaş": 957,
      "taş": 958,
      "çeşit": 959,
      "van": 960,
      "üzerinden": 961,
      "İs": 962,
      "fak": 963,
      "ancak": 964,
      "bilin": 965,
      "olayı": 966,
      "gan": 967,
      "kurul": 968,
      "yüzde": 969,
      "edilen": 970,
      "müm": 971,
      "ştır": 972,
      "co": 973,
      "masını": 974,
      "yayın": 975,
      "vardır": 976,
      "yaşa": 977,
      "ize": 978,
      "ceği": 979,
      "geçir": 980,
      "bor": 981,
      "olacak": 982,
      "duğu": 983,
      "kurum": 984,
      "sik": 985,
      "tah": 986,
      "pol": 987,
      "oldukça": 988,
      "konusunda": 989,
      "ğa": 990,
      "kısa": 991,
      "yöntem": 992,
      "ris": 993,
      "bırak": 994,
      "mad": 995,
      "lacak": 996,
      "araç": 997,
      "madan": 998,
      "mümkün": 999,
      "edef": 1000,
      "gelir": 1001,
      "görev": 1002,
      "azar": 1003,
      "asyon": 1004,
      "temel": 1005,
      "rar": 1006,
      "fır": 1007,
      "suz": 1008,
      "bes": 1009,
      "Ben": 1010,
      "sunuz": 1011,
      "İl": 1012,
      "form": 1013,
      "ayda": 1014,
      "cağ": 1015,
      "zar": 1016,
      "geliştir": 1017,
      "size": 1018,
      "masına": 1019,
      "bilgiler": 1020,
      "çi": 1021,
      "kalit": 1022,
      "onom": 1023,
      "lemek": 1024,
      "plan": 1025,
      "bütün": 1026,
      "leme": 1027,
      "tay": 1028,
      "sektör": 1029,
      "gönder": 1030,
      "lığın": 1031,
      "soru": 1032,
      "ard": 1033,
      "ilet": 1034,
      "Bunun": 1035,
      "Bak": 1036,
      "15": 1037,
      "yaklaş": 1038,
      "üt": 1039,
      "gereken": 1040,
      "ec": 1041,
      "üzerine": 1042,
      "tat": 1043,
      "istiyor": 1044,
      "hur": 1045,
      "ası": 1046,
      "ni": 1047,
      "yür": 1048,
      "Bel": 1049,
      "larak": 1050,
      "sağlık": 1051,
      "takip": 1052,
      "git": 1053,
      "zamanda": 1054,
      "teş": 1055,
      "do": 1056,
      "yapmak": 1057,
      "elerin": 1058,
      "veren": 1059,
      "kişi": 1060,
      "hi": 1061,
      "kaynak": 1062,
      "kesin": 1063,
      "seçen": 1064,
      "esini": 1065,
      "trol": 1066,
      "merkez": 1067,
      "çer": 1068,
      "yanı": 1069,
      "hedef": 1070,
      "dedi": 1071,
      "umuz": 1072,
      "bölüm": 1073,
      "mik": 1074,
      "end": 1075,
      "izin": 1076,
      "tap": 1077,
      "kom": 1078,
      "herhangi": 1079,
      "proj": 1080,
      "fik": 1081,
      "lum": 1082,
      "cağı": 1083,
      "rahat": 1084,
      "görüş": 1085,
      "hay": 1086,
      "elim": 1087,
      "landır": 1088,
      "yerine": 1089,
      "atan": 1090,
      "Ayrıca": 1091,
      "Av": 1092,
      "yılında": 1093,
      "sosyal": 1094,
      "duğ": 1095,
      "meden": 1096,
      "21": 1097,
      "stanbul": 1098,
      "tamam": 1099,
      "gerekir": 1100,
      "ekonom": 1101,
      "laya": 1102,
      "ledi": 1103,
      "atı": 1104,
      "Bur": 1105,
      "Son": 1106,
      "anal": 1107,
      "Ak": 1108,
      "lak": 1109,
      "İstanbul": 1110,
      "değerlendir": 1111,
      "anı": 1112,
      "öde": 1113,
      "inci": 1114,
      "veril": 1115,
      "Gen": 1116,
      "satış": 1117,
      "altında": 1118,
      "isini": 1119,
      "bölg": 1120,
      "sonuç": 1121,
      "larınız": 1122,
      "lenen": 1123,
      "arası": 1124,
      "araştır": 1125,
      "fes": 1126,
      "yüksel": 1127,
      "internet": 1128,
      "Gün": 1129,
      "Allah": 1130,
      "firma": 1131,
      "küç": 1132,
      "kontrol": 1133,
      "eceğ": 1134,
      "milyon": 1135,
      "meli": 1136,
      "bağlı": 1137,
      "alım": 1138,
      "cü": 1139,
      "tanı": 1140,
      "bar": 1141,
      "yakın": 1142,
      "site": 1143,
      "sitesi": 1144,
      "tığı": 1145,
      "giriş": 1146,
      "telef": 1147,
      "tük": 1148,
      "Da": 1149,
      "hep": 1150,
      "ner": 1151,
      "çoğ": 1152,
      "dönüş": 1153,
      "rü": 1154,
      "ince": 1155,
      "sil": 1156,
      "hızlı": 1157,
      "lantı": 1158,
      "eni": 1159,
      "ayr": 1160,
      "mesini": 1161,
      "stra": 1162,
      "dolar": 1163,
      "ayar": 1164,
      "spor": 1165,
      "of": 1166,
      "gil": 1167,
      "fayda": 1168,
      "teknoloj": 1169,
      "com": 1170,
      "incel": 1171,
      "hiçbir": 1172,
      "ila": 1173,
      "bilmek": 1174,
      "gin": 1175,
      "özellik": 1176,
      "esinin": 1177,
      "ker": 1178,
      "sınır": 1179,
      "ğin": 1180,
      "kayı": 1181,
      "seviy": 1182,
      "yapan": 1183,
      "erli": 1184,
      "gar": 1185,
      "dö": 1186,
      "yaşam": 1187,
      "değildir": 1188,
      "isine": 1189,
      "tor": 1190,
      "Biz": 1191,
      "aracı": 1192,
      "gın": 1193,
      "ses": 1194,
      "deney": 1195,
      "plat": 1196,
      "bol": 1197,
      "kav": 1198,
      "hast": 1199,
      "gru": 1200,
      "onun": 1201,
      "inize": 1202,
      "kol": 1203,
      "hemen": 1204,
      "uluk": 1205,
      "geri": 1206,
      "katı": 1207,
      "büy": 1208,
      "böyle": 1209,
      "umlu": 1210,
      "50": 1211,
      "canlı": 1212,
      "kil": 1213,
      "syon": 1214,
      "30": 1215,
      "başvur": 1216,
      "ibi": 1217,
      "kül": 1218,
      "ıcı": 1219,
      "indir": 1220,
      "abilirsiniz": 1221,
      "gaz": 1222,
      "tedav": 1223,
      "hafta": 1224,
      "Ma": 1225,
      "ıntı": 1226,
      "mel": 1227,
      "meniz": 1228,
      "iyoruz": 1229,
      "ener": 1230,
      "ilere": 1231,
      "meyi": 1232,
      "af": 1233,
      "Mer": 1234,
      "itib": 1235,
      "uç": 1236,
      "lek": 1237,
      "kapsam": 1238,
      "ister": 1239,
      "hale": 1240,
      "lanma": 1241,
      "küçük": 1242,
      "almak": 1243,
      "lüğ": 1244,
      "çalışan": 1245,
      "siya": 1246,
      "sıyla": 1247,
      "nek": 1248,
      "değişik": 1249,
      "hil": 1250,
      "Dün": 1251,
      "isel": 1252,
      "ındaki": 1253,
      "ucu": 1254,
      "cil": 1255,
      "ait": 1256,
      "devlet": 1257,
      "TL": 1258,
      "acak": 1259,
      "hesab": 1260,
      "Ara": 1261,
      "olup": 1262,
      "üp": 1263,
      "lis": 1264,
      "koş": 1265,
      "ılan": 1266,
      "kıs": 1267,
      "şehir": 1268,
      "yaşan": 1269,
      "tab": 1270,
      "leye": 1271,
      "Pro": 1272,
      "12": 1273,
      "madde": 1274,
      "tav": 1275,
      "coin": 1276,
      "öğret": 1277,
      "he": 1278,
      "sayesinde": 1279,
      "ilmesi": 1280,
      "mesine": 1281,
      "laştır": 1282,
      "labilir": 1283,
      "tama": 1284,
      "sizin": 1285,
      "bo": 1286,
      "ga": 1287,
      "dolayı": 1288,
      "set": 1289,
      "ıp": 1290,
      "gerekli": 1291,
      "100": 1292,
      "po": 1293,
      "tej": 1294,
      "urt": 1295,
      "risk": 1296,
      "amaç": 1297,
      "kaldır": 1298,
      "yıcı": 1299,
      "ekli": 1300,
      "ece": 1301,
      "cin": 1302,
      "bugün": 1303,
      "temiz": 1304,
      "Ama": 1305,
      "yardımcı": 1306,
      "ladı": 1307,
      "iyaret": 1308,
      "yu": 1309,
      "erk": 1310,
      "Çünkü": 1311,
      "ihtiyaç": 1312,
      "yay": 1313,
      "yatırımcı": 1314,
      "200": 1315,
      "anlaş": 1316,
      "lanır": 1317,
      "ayet": 1318,
      "görül": 1319,
      "umhur": 1320,
      "isyon": 1321,
      "oğraf": 1322,
      "zarar": 1323,
      "larıyla": 1324,
      "bas": 1325,
      "bunu": 1326,
      "ona": 1327,
      "değiştir": 1328,
      "elek": 1329,
      "Eğer": 1330,
      "ardından": 1331,
      "artık": 1332,
      "lamak": 1333,
      "lış": 1334,
      "toplum": 1335,
      "Ev": 1336,
      "Bun": 1337,
      "seniz": 1338,
      "cut": 1339,
      "lardır": 1340,
      "kara": 1341,
      "Or": 1342,
      "açıklama": 1343,
      "ele": 1344,
      "gider": 1345,
      "çözüm": 1346,
      "cer": 1347,
      "yanın": 1348,
      "taj": 1349,
      "konusu": 1350,
      "Özel": 1351,
      "fi": 1352,
      "koy": 1353,
      "nedenle": 1354,
      "uzman": 1355,
      "arkadaş": 1356,
      "özellikle": 1357,
      "dok": 1358,
      "aliyet": 1359,
      "anın": 1360,
      "parça": 1361,
      "bunun": 1362,
      "anda": 1363,
      "Sa": 1364,
      "kür": 1365,
      "ani": 1366,
      "ilişk": 1367,
      "aşağı": 1368,
      "boy": 1369,
      "layan": 1370,
      "aya": 1371,
      "miktar": 1372,
      "olacaktır": 1373,
      "işlet": 1374,
      "ziyaret": 1375,
      "ettiğ": 1376,
      "mar": 1377,
      "kam": 1378,
      "engel": 1379,
      "vak": 1380,
      "yi": 1381,
      "model": 1382,
      "stratej": 1383,
      "olmayan": 1384,
      "ebilirsiniz": 1385,
      "çeşitli": 1386,
      "ünün": 1387,
      "telefon": 1388,
      "cağını": 1389,
      "pazar": 1390,
      "ışı": 1391,
      "geçen": 1392,
      "ılır": 1393,
      "adım": 1394,
      "teknik": 1395,
      "yacak": 1396,
      "program": 1397,
      "Bü": 1398,
      "lin": 1399,
      "itibar": 1400,
      "uğ": 1401,
      "ayrı": 1402,
      "nedeniyle": 1403,
      "aber": 1404,
      "poz": 1405,
      "siteler": 1406,
      "indeki": 1407,
      "edik": 1408,
      "AB": 1409,
      "cihaz": 1410,
      "emin": 1411,
      "18": 1412,
      "Tek": 1413,
      "abilir": 1414,
      "ediğiniz": 1415,
      "imdi": 1416,
      "öner": 1417,
      "uma": 1418,
      "talep": 1419,
      "diğini": 1420,
      "etkil": 1421,
      "satın": 1422,
      "istan": 1423,
      "aşı": 1424,
      "ıyoruz": 1425,
      "tım": 1426,
      "sar": 1427,
      "og": 1428,
      "serv": 1429,
      "Daha": 1430,
      "öğrenc": 1431,
      "uzak": 1432,
      "şa": 1433,
      "isim": 1434,
      "yarak": 1435,
      "hük": 1436,
      "On": 1437,
      "şart": 1438,
      "beraber": 1439,
      "rim": 1440,
      "tüket": 1441,
      "boyun": 1442,
      "ulan": 1443,
      "ılması": 1444,
      "isteyen": 1445,
      "etkin": 1446,
      "Avru": 1447,
      "tep": 1448,
      "viz": 1449,
      "faaliyet": 1450,
      "mevcut": 1451,
      "edin": 1452,
      "imizin": 1453,
      "osta": 1454,
      "Kar": 1455,
      "yum": 1456,
      "Cumhur": 1457,
      "oluyor": 1458,
      "lanması": 1459,
      "dışında": 1460,
      "alma": 1461,
      "isinin": 1462,
      "As": 1463,
      "banka": 1464,
      "sayfa": 1465,
      "ğına": 1466,
      "içerik": 1467,
      "müca": 1468,
      "iletişim": 1469,
      "vatan": 1470,
      "oğlu": 1471,
      "yapar": 1472,
      "yarar": 1473,
      "tekrar": 1474,
      "ham": 1475,
      "benim": 1476,
      "bey": 1477,
      "malıdır": 1478,
      "yine": 1479,
      "bildir": 1480,
      "ilecek": 1481,
      "seçenek": 1482,
      "leyen": 1483,
      "durumda": 1484,
      "burada": 1485,
      "dığınız": 1486,
      "eç": 1487,
      "nız": 1488,
      "imizi": 1489,
      "dal": 1490,
      "amacı": 1491,
      "kullanım": 1492,
      "Bit": 1493,
      "bakım": 1494,
      "yönelik": 1495,
      "eti": 1496,
      "yağ": 1497,
      "olun": 1498,
      "Ya": 1499,
      "tin": 1500,
      "oyna": 1501,
      "up": 1502,
      "sebep": 1503,
      "benzer": 1504,
      "genç": 1505,
      "duk": 1506,
      "okul": 1507,
      "çiz": 1508,
      "aj": 1509,
      "ari": 1510,
      "go": 1511,
      "des": 1512,
      "olmuş": 1513,
      "meyen": 1514,
      "yonu": 1515,
      "Avrupa": 1516,
      "usu": 1517,
      "dayan": 1518,
      "detay": 1519,
      "oto": 1520,
      "bizim": 1521,
      "24": 1522,
      "yaptığı": 1523,
      "lında": 1524,
      "rol": 1525,
      "yoğ": 1526,
      "ime": 1527,
      "landı": 1528,
      "iştir": 1529,
      "oda": 1530,
      "yız": 1531,
      "yeniden": 1532,
      "line": 1533,
      "elektr": 1534,
      "gerçekleş": 1535,
      "br": 1536,
      "ağır": 1537,
      "tiği": 1538,
      "menin": 1539,
      "ortam": 1540,
      "Sit": 1541,
      "birbir": 1542,
      "val": 1543,
      "günü": 1544,
      "kız": 1545,
      "laması": 1546,
      "ğımız": 1547,
      "artır": 1548,
      "iyorum": 1549,
      "dair": 1550,
      "güncel": 1551,
      "film": 1552,
      "elere": 1553,
      "sürdür": 1554,
      "karı": 1555,
      "ade": 1556,
      "Ön": 1557,
      "ışma": 1558,
      "imde": 1559,
      "bonu": 1560,
      "kayb": 1561,
      "ilerini": 1562,
      "polit": 1563,
      "ölç": 1564,
      "derece": 1565,
      "imize": 1566,
      "yani": 1567,
      "türlü": 1568,
      "renk": 1569,
      "posta": 1570,
      "olsun": 1571,
      "ortak": 1572,
      "maç": 1573,
      "kitap": 1574,
      "Di": 1575,
      "ital": 1576,
      "ram": 1577,
      "süreç": 1578,
      "yada": 1579,
      "biraz": 1580,
      "meleri": 1581,
      "haya": 1582,
      "lıdır": 1583,
      "Yeni": 1584,
      "Doğ": 1585,
      "beklen": 1586,
      "olsa": 1587,
      "forex": 1588,
      "hasta": 1589,
      "ildi": 1590,
      "takım": 1591,
      "Bakan": 1592,
      "ilerine": 1593,
      "dığımız": 1594,
      "Ser": 1595,
      "otoğraf": 1596,
      "Kı": 1597,
      "leriyle": 1598,
      "platform": 1599,
      "ort": 1600,
      "rağ": 1601,
      "matik": 1602,
      "etkili": 1603,
      "dana": 1604,
      "mas": 1605,
      "mamız": 1606,
      "adı": 1607,
      "boyunca": 1608,
      "ettiği": 1609,
      "işi": 1610,
      "kullanılan": 1611,
      "so": 1612,
      "boz": 1613,
      "çıkan": 1614,
      "vi": 1615,
      "kut": 1616,
      "inizin": 1617,
      "alır": 1618,
      "gelecek": 1619,
      "edilir": 1620,
      "bilmektedir": 1621,
      "gerekiyor": 1622,
      "2021": 1623,
      "Ba": 1624,
      "düşük": 1625,
      "luluk": 1626,
      "dahil": 1627,
      "ınıza": 1628,
      "hava": 1629,
      "cid": 1630,
      "sahibi": 1631,
      "erkek": 1632,
      "enerj": 1633,
      "emizde": 1634,
      "biç": 1635,
      "undan": 1636,
      "kültür": 1637,
      "yo": 1638,
      "teh": 1639,
      "elerde": 1640,
      "kayıt": 1641,
      "tra": 1642,
      "şekl": 1643,
      "ederek": 1644,
      "sanat": 1645,
      "sözleş": 1646,
      "lanmış": 1647,
      "ediy": 1648,
      "marka": 1649,
      "içi": 1650,
      "ilmiş": 1651,
      "nit": 1652,
      "doğan": 1653,
      "boş": 1654,
      "hizmeti": 1655,
      "kişiler": 1656,
      "azı": 1657,
      "görü": 1658,
      "vade": 1659,
      "deneyim": 1660,
      "halinde": 1661,
      "eniz": 1662,
      "dolu": 1663,
      "araştırma": 1664,
      "dum": 1665,
      "organ": 1666,
      "rağmen": 1667,
      "açısından": 1668,
      "analiz": 1669,
      "lıkla": 1670,
      "üretim": 1671,
      "Kan": 1672,
      "Fak": 1673,
      "ımda": 1674,
      "ğında": 1675,
      "diz": 1676,
      "yoğun": 1677,
      "lilik": 1678,
      "neler": 1679,
      "eski": 1680,
      "sürekli": 1681,
      "ediği": 1682,
      "kın": 1683,
      "edecek": 1684,
      "larınızı": 1685,
      "dim": 1686,
      "yalnız": 1687,
      "davran": 1688,
      "karşılaş": 1689,
      "ılmış": 1690,
      "iğ": 1691,
      "11": 1692,
      "ilebilir": 1693,
      "ayan": 1694,
      "diy": 1695,
      "seçim": 1696,
      "dakika": 1697,
      "hüküm": 1698,
      "inc": 1699,
      "Mü": 1700,
      "cev": 1701,
      "Tüm": 1702,
      "Ör": 1703,
      "ift": 1704,
      "eri": 1705,
      "Ne": 1706,
      "Genel": 1707,
      "geniş": 1708,
      "başladı": 1709,
      "umu": 1710,
      "uyla": 1711,
      "kişisel": 1712,
      "mayan": 1713,
      "ekip": 1714,
      "bilen": 1715,
      "birkaç": 1716,
      "tamamen": 1717,
      "ing": 1718,
      "bileceğiniz": 1719,
      "sağlar": 1720,
      "doğal": 1721,
      "bize": 1722,
      "işe": 1723,
      "fotoğraf": 1724,
      "ilişkin": 1725,
      "koşul": 1726,
      "zen": 1727,
      "ünden": 1728,
      "vide": 1729,
      "üler": 1730,
      "tip": 1731,
      "mobil": 1732,
      "dep": 1733,
      "elikle": 1734,
      "cağız": 1735,
      "kişinin": 1736,
      "dığında": 1737,
      "sur": 1738,
      "oyuncu": 1739,
      "zem": 1740,
      "000": 1741,
      "Ko": 1742,
      "ört": 1743,
      "maları": 1744,
      "gür": 1745,
      "iyeti": 1746,
      "ch": 1747,
      "oyn": 1748,
      "uyu": 1749,
      "konuda": 1750,
      "ödeme": 1751,
      "Yap": 1752,
      "deniz": 1753,
      "müz": 1754,
      "Dev": 1755,
      "esel": 1756,
      "tanım": 1757,
      "El": 1758,
      "Bil": 1759,
      "mağ": 1760,
      "güçlü": 1761,
      "İlk": 1762,
      "yaklaşık": 1763,
      "aten": 1764,
      "savaş": 1765,
      "vatandaş": 1766,
      "görüntü": 1767,
      "Böyle": 1768,
      "yasa": 1769,
      "ediye": 1770,
      "sefer": 1771,
      "Ana": 1772,
      "sim": 1773,
      "ınızı": 1774,
      "kem": 1775,
      "unut": 1776,
      "tasarım": 1777,
      "dek": 1778,
      "sine": 1779,
      "başarılı": 1780,
      "avan": 1781,
      "Mil": 1782,
      "14": 1783,
      "sip": 1784,
      "adına": 1785,
      "reklam": 1786,
      "verilen": 1787,
      "İz": 1788,
      "Kon": 1789,
      "pit": 1790,
      "neğin": 1791,
      "mah": 1792,
      "günlük": 1793,
      "yonel": 1794,
      "İngil": 1795,
      "tiğini": 1796,
      "İnsan": 1797,
      "ant": 1798,
      "geldi": 1799,
      "diyor": 1800,
      "25": 1801,
      "ABD": 1802,
      "sırasında": 1803,
      "kötü": 1804,
      "Ve": 1805,
      "yurt": 1806,
      "şam": 1807,
      "söyledi": 1808,
      "Bitcoin": 1809,
      "kate": 1810,
      "ceza": 1811,
      "lerinizi": 1812,
      "fesyonel": 1813,
      "laka": 1814,
      "durumunda": 1815,
      "bay": 1816,
      "hastalık": 1817,
      "akıl": 1818,
      "yaka": 1819,
      "adresimi": 1820,
      ".\"": 1821,
      "otur": 1822,
      "ton": 1823,
      "irüs": 1824,
      "ekonomik": 1825,
      "bilim": 1826,
      "ileş": 1827,
      "num": 1828,
      "ipto": 1829,
      "sistemi": 1830,
      "etik": 1831,
      "pu": 1832,
      "yönetim": 1833,
      "ail": 1834,
      "opsiyon": 1835,
      "kısı": 1836,
      "omo": 1837,
      "ışık": 1838,
      "eği": 1839,
      "Dünya": 1840,
      "onay": 1841,
      "ikinci": 1842,
      "çağ": 1843,
      "altına": 1844,
      "kaybet": 1845,
      "söyle": 1846,
      "kuruluş": 1847,
      "isayar": 1848,
      "çıktı": 1849,
      "sig": 1850,
      "mücade": 1851,
      "güvenilir": 1852,
      "grup": 1853,
      "belli": 1854,
      "Özellikle": 1855,
      "Yani": 1856,
      "sizlere": 1857,
      "sey": 1858,
      "ücretsiz": 1859,
      "mat": 1860,
      "satı": 1861,
      "Mu": 1862,
      "duygu": 1863,
      "Kul": 1864,
      "medya": 1865,
      "yanında": 1866,
      "cağınız": 1867,
      "Es": 1868,
      "yasal": 1869,
      "Uz": 1870,
      "avantaj": 1871,
      "isten": 1872,
      "aktar": 1873,
      "örnek": 1874,
      "anlat": 1875,
      "saç": 1876,
      "iddi": 1877,
      "16": 1878,
      "yapılır": 1879,
      "bileceği": 1880,
      "ölüm": 1881,
      "alıyor": 1882,
      "kazanç": 1883,
      "diş": 1884,
      "ck": 1885,
      "ıza": 1886,
      "In": 1887,
      "kaliteli": 1888,
      "tespit": 1889,
      "17": 1890,
      "bancı": 1891,
      "mir": 1892,
      "çar": 1893,
      "işaret": 1894,
      "yüzden": 1895,
      "birey": 1896,
      "Şu": 1897,
      "uğra": 1898,
      "kapı": 1899,
      "tion": 1900,
      "ho": 1901,
      "artış": 1902,
      "otor": 1903,
      "Fakat": 1904,
      "blem": 1905,
      "huk": 1906,
      "miyor": 1907,
      "dıkları": 1908,
      "zorunda": 1909,
      "erken": 1910,
      "dışı": 1911,
      "melidir": 1912,
      "ayak": 1913,
      "ke": 1914,
      "dül": 1915,
      "baba": 1916,
      "mekte": 1917,
      "ilç": 1918,
      "ciddi": 1919,
      "verir": 1920,
      "yemek": 1921,
      "tec": 1922,
      "varsa": 1923,
      "giz": 1924,
      "kelim": 1925,
      "bı": 1926,
      "bulunmaktadır": 1927,
      "dol": 1928,
      "inizde": 1929,
      "Büyük": 1930,
      "yolu": 1931,
      "ormal": 1932,
      "kaydet": 1933,
      "list": 1934,
      "lay": 1935,
      "herkes": 1936,
      "kural": 1937,
      "toplam": 1938,
      "koru": 1939,
      "gez": 1940,
      "geliyor": 1941,
      "lararası": 1942,
      "sman": 1943,
      "lerce": 1944,
      "lığını": 1945,
      "müşteri": 1946,
      "insanlar": 1947,
      "Hal": 1948,
      "sü": 1949,
      "sınıf": 1950,
      "demek": 1951,
      "suç": 1952,
      "nedir": 1953,
      "kah": 1954,
      "saldır": 1955,
      "arz": 1956,
      "ders": 1957,
      "hatır": 1958,
      "aldı": 1959,
      "13": 1960,
      "yapma": 1961,
      "Kara": 1962,
      "belirlen": 1963,
      "şeklinde": 1964,
      "Kr": 1965,
      "milyar": 1966,
      "sem": 1967,
      "ig": 1968,
      "geçmiş": 1969,
      "problem": 1970,
      "fon": 1971,
      "ünüz": 1972,
      "cevap": 1973,
      "olmaya": 1974,
      "Aynı": 1975,
      "gerekmektedir": 1976,
      "lül": 1977,
      "dın": 1978,
      "ıştır": 1979,
      "belg": 1980,
      ").": 1981,
      "isiniz": 1982,
      "sorum": 1983,
      "istik": 1984,
      "borsa": 1985,
      "rul": 1986,
      "dam": 1987,
      "ilerinin": 1988,
      "Top": 1989,
      "Yıl": 1990,
      "elerini": 1991,
      "deş": 1992,
      "jital": 1993,
      "yeterli": 1994,
      "nde": 1995,
      "itibaren": 1996,
      "haline": 1997,
      "yoktur": 1998,
      "Ban": 1999,
      "lerdir": 2000,
      "Amer": 2001,
      "genellikle": 2002,
      "hisse": 2003,
      "has": 2004,
      "kapsamında": 2005,
      "beğ": 2006,
      "değişiklik": 2007,
      "aşama": 2008,
      "Siz": 2009,
      "tedir": 2010,
      "arasındaki": 2011,
      "iliğ": 2012,
      "profesyonel": 2013,
      "ariş": 2014,
      "sıcak": 2015,
      "eşya": 2016,
      "ekran": 2017,
      "ıyorum": 2018,
      "dağı": 2019,
      "sizi": 2020,
      "edilmesi": 2021,
      "ata": 2022,
      "servis": 2023,
      "diğimiz": 2024,
      "fet": 2025,
      "cılık": 2026,
      "liğini": 2027,
      "meydana": 2028,
      "sağlaya": 2029,
      "vet": 2030,
      "insanların": 2031,
      "teslim": 2032,
      "kalan": 2033,
      "fen": 2034,
      "merak": 2035,
      "politika": 2036,
      "aşır": 2037,
      "eki": 2038,
      "Burada": 2039,
      "don": 2040,
      "dük": 2041,
      "katkı": 2042,
      "Sağ": 2043,
      "katıl": 2044,
      "muh": 2045,
      "Der": 2046,
      "kir": 2047,
      "elen": 2048,
      "başvuru": 2049,
      "bilmesi": 2050,
      "hiss": 2051,
      "sayısı": 2052,
      "rapor": 2053,
      "lulu": 2054,
      "larca": 2055,
      "şöyle": 2056,
      "şar": 2057,
      "bal": 2058,
      "San": 2059,
      "çünkü": 2060,
      "uştur": 2061,
      "dıktan": 2062,
      "),": 2063,
      "bana": 2064,
      "karak": 2065,
      "test": 2066,
      "bulunu": 2067,
      "ayır": 2068,
      "ılma": 2069,
      "ıldı": 2070,
      "22": 2071,
      "Oy": 2072,
      "ilendir": 2073,
      "veriş": 2074,
      "gor": 2075,
      "çift": 2076,
      "eksik": 2077,
      "birim": 2078,
      "millet": 2079,
      "dünyanın": 2080,
      "Kal": 2081,
      "oluşan": 2082,
      "sürec": 2083,
      "mıştı": 2084,
      "nes": 2085,
      "hen": 2086,
      "tim": 2087,
      "emez": 2088,
      "ov": 2089,
      "bağlantı": 2090,
      "casin": 2091,
      "amacıyla": 2092,
      "liyor": 2093,
      "panya": 2094,
      "halk": 2095,
      "tart": 2096,
      "çerez": 2097,
      "forman": 2098,
      "asker": 2099,
      "izm": 2100,
      "üncü": 2101,
      "dönemde": 2102,
      "bilgisayar": 2103,
      "altın": 2104,
      "etmiş": 2105,
      "yanlış": 2106,
      "hik": 2107,
      "ted": 2108,
      "siteleri": 2109,
      "Par": 2110,
      "sahiptir": 2111,
      "belirli": 2112,
      "kullanarak": 2113,
      "köy": 2114,
      "ilan": 2115,
      "kredi": 2116,
      "bonus": 2117,
      "vaz": 2118,
      "altı": 2119,
      "makin": 2120,
      "tarihi": 2121,
      "yıllık": 2122,
      "önemlidir": 2123,
      "güvenlik": 2124,
      "işlemi": 2125,
      "araya": 2126,
      "aslında": 2127,
      "adam": 2128,
      "veri": 2129,
      "Çok": 2130,
      "sunu": 2131,
      "yaptır": 2132,
      "yaparak": 2133,
      "Hak": 2134,
      "hayvan": 2135,
      "fırsat": 2136,
      "Fa": 2137,
      "imza": 2138,
      "Bugün": 2139,
      "pop": 2140,
      "iliği": 2141,
      "yarı": 2142,
      "cının": 2143,
      "40": 2144,
      "lamaya": 2145,
      "inşa": 2146,
      "2020": 2147,
      "ümüzde": 2148,
      "gec": 2149,
      "luğ": 2150,
      "düzey": 2151,
      "Erdoğan": 2152,
      "buna": 2153,
      "biliriz": 2154,
      "Rus": 2155,
      "dava": 2156,
      "temsil": 2157,
      "ruh": 2158,
      "teki": 2159,
      "İşte": 2160,
      "olmaz": 2161,
      "dos": 2162,
      "oper": 2163,
      "bilgileri": 2164,
      "mutlaka": 2165,
      "hav": 2166,
      "kart": 2167,
      "ilaç": 2168,
      "günde": 2169,
      "basit": 2170,
      "Başkan": 2171,
      "luğu": 2172,
      "diğinde": 2173,
      "resi": 2174,
      "yarat": 2175,
      "kop": 2176,
      "sonunda": 2177,
      "pat": 2178,
      "siye": 2179,
      "kilo": 2180,
      "Çocu": 2181,
      "çıka": 2182,
      "sağlamak": 2183,
      "eser": 2184,
      "bat": 2185,
      "gun": 2186,
      "onik": 2187,
      "sağlayan": 2188,
      "performan": 2189,
      "ülke": 2190,
      "yıp": 2191,
      "isti": 2192,
      "Alman": 2193,
      "casino": 2194,
      "yabancı": 2195,
      "ulus": 2196,
      "fiya": 2197,
      "Mo": 2198,
      "online": 2199,
      "ıs": 2200,
      "alanında": 2201,
      "sonucu": 2202,
      "yerde": 2203,
      "başkan": 2204,
      "ağrı": 2205,
      "ves": 2206,
      "Başkanı": 2207,
      "istediğiniz": 2208,
      "mesaj": 2209,
      "Ro": 2210,
      "vermek": 2211,
      "kamu": 2212,
      "suna": 2213,
      "sol": 2214,
      "ayrıca": 2215,
      "edebilirsiniz": 2216,
      "hatta": 2217,
      "tabi": 2218,
      "yazar": 2219,
      "Eğ": 2220,
      "tedavi": 2221,
      "malzem": 2222,
      "adet": 2223,
      "aray": 2224,
      "yana": 2225,
      "çoğu": 2226,
      "enf": 2227,
      "Haz": 2228,
      "60": 2229,
      "kıya": 2230,
      "üf": 2231,
      "kripto": 2232,
      "Ta": 2233,
      "pak": 2234,
      "imli": 2235,
      "aldığı": 2236,
      "Kor": 2237,
      "hata": 2238,
      "şi": 2239,
      "güvenli": 2240,
      "ilerek": 2241,
      "elerinin": 2242,
      "ela": 2243,
      "Tekn": 2244,
      "sonrası": 2245,
      "düğü": 2246,
      "Go": 2247,
      "Merkez": 2248,
      "yansı": 2249,
      "yaptık": 2250,
      "üye": 2251,
      "fin": 2252,
      "karakter": 2253,
      "zı": 2254,
      "zengin": 2255,
      "fikir": 2256,
      "deste": 2257,
      "iver": 2258,
      "uc": 2259,
      "memnun": 2260,
      "ırken": 2261,
      "konuştu": 2262,
      "cort": 2263,
      "kısm": 2264,
      "faiz": 2265,
      "ete": 2266,
      "sever": 2267,
      "kendini": 2268,
      "ımıza": 2269,
      "gal": 2270,
      "video": 2271,
      "bulunuyor": 2272,
      "hoş": 2273,
      "okra": 2274,
      "aktif": 2275,
      "sonrasında": 2276,
      "tıyor": 2277,
      "cam": 2278,
      "ima": 2279,
      "yav": 2280,
      "esinden": 2281,
      "dört": 2282,
      "zon": 2283,
      "bağım": 2284,
      "kapa": 2285,
      "elerine": 2286,
      "Tem": 2287,
      "karş": 2288,
      "umsuz": 2289,
      "Osman": 2290,
      "odak": 2291,
      "nerede": 2292,
      "Mar": 2293,
      "diler": 2294,
      "lira": 2295,
      "anti": 2296,
      "part": 2297,
      "başlayan": 2298,
      "Ka": 2299,
      "eğer": 2300,
      "şan": 2301,
      "tarayıcı": 2302,
      "şid": 2303,
      "sağlıklı": 2304,
      "şık": 2305,
      "taki": 2306,
      "olojik": 2307,
      "sp": 2308,
      "mücadele": 2309,
      "lif": 2310,
      "Tar": 2311,
      "şah": 2312,
      "gerçekten": 2313,
      "lamaz": 2314,
      "arama": 2315,
      "başına": 2316,
      "Örneğin": 2317,
      "işlemleri": 2318,
      "ecektir": 2319,
      "emir": 2320,
      "bölge": 2321,
      "pozisyon": 2322,
      "ite": 2323,
      "layarak": 2324,
      "üme": 2325,
      "tecrü": 2326,
      "yukarı": 2327,
      "anlar": 2328,
      "kent": 2329,
      "acı": 2330,
      "beri": 2331,
      "oker": 2332,
      "diğiniz": 2333,
      "Hem": 2334,
      "Su": 2335,
      "evi": 2336,
      "alanda": 2337,
      "layın": 2338,
      "yalnızca": 2339,
      "örgü": 2340,
      "sıkıntı": 2341,
      "niver": 2342,
      "onları": 2343,
      "lüğü": 2344,
      "yapılması": 2345,
      "başında": 2346,
      "İslam": 2347,
      "manızı": 2348,
      "kuş": 2349,
      "fiz": 2350,
      "stik": 2351,
      "hastan": 2352,
      "sonuc": 2353,
      "Ül": 2354,
      "derin": 2355,
      "tiv": 2356,
      "Fran": 2357,
      "soğ": 2358,
      "sayıda": 2359,
      "yapıyor": 2360,
      "tez": 2361,
      "iği": 2362,
      "fakat": 2363,
      "durumu": 2364,
      "normal": 2365,
      "ceki": 2366,
      "Çin": 2367,
      "Ankara": 2368,
      "yapılacak": 2369,
      "imkan": 2370,
      "sipariş": 2371,
      "boyut": 2372,
      "verdiği": 2373,
      "değerli": 2374,
      "car": 2375,
      "adan": 2376,
      "eg": 2377,
      "fat": 2378,
      "tahmin": 2379,
      "öğretmen": 2380,
      "giy": 2381,
      "dis": 2382,
      "ortalama": 2383,
      "Kullan": 2384,
      "mür": 2385,
      "Devlet": 2386,
      "dijital": 2387,
      "masa": 2388,
      "verdi": 2389,
      "arttır": 2390,
      "aracılığı": 2391,
      "yalı": 2392,
      "döviz": 2393,
      "Gaz": 2394,
      "vil": 2395,
      "türü": 2396,
      "diren": 2397,
      "ekim": 2398,
      "yapıla": 2399,
      "Gel": 2400,
      "enerji": 2401,
      "tanın": 2402,
      "dile": 2403,
      "person": 2404,
      "tren": 2405,
      "etim": 2406,
      "elektrik": 2407,
      "od": 2408,
      "taşıma": 2409,
      "Bazı": 2410,
      "nda": 2411,
      "ihra": 2412,
      "kanal": 2413,
      "üniver": 2414,
      "ogle": 2415,
      "toplantı": 2416,
      "bulunduğu": 2417,
      "oranı": 2418,
      "düşünc": 2419,
      "gam": 2420,
      "mon": 2421,
      "şimdi": 2422,
      "Üniver": 2423,
      "alınan": 2424,
      "lasyon": 2425,
      "iri": 2426,
      "olmadığını": 2427,
      "Diğer": 2428,
      "etmektedir": 2429,
      "yaşayan": 2430,
      "şeyi": 2431,
      "Geç": 2432,
      "ücu": 2433,
      "lığa": 2434,
      "ent": 2435,
      "sızlık": 2436,
      "utbol": 2437,
      "başkanı": 2438,
      "tutar": 2439,
      "eklen": 2440,
      "Söz": 2441,
      "girişim": 2442,
      "konum": 2443,
      "şik": 2444,
      "gören": 2445,
      "kardeş": 2446,
      "oloji": 2447,
      "ğının": 2448,
      "Ey": 2449,
      "ettik": 2450,
      "raki": 2451,
      "ediğini": 2452,
      "olumsuz": 2453,
      "tavsiye": 2454,
      "halde": 2455,
      "korun": 2456,
      "danış": 2457,
      "duyur": 2458,
      "hastalı": 2459,
      "rah": 2460,
      "yere": 2461,
      "str": 2462,
      "usta": 2463,
      "Bor": 2464,
      "vurgu": 2465,
      "sitemiz": 2466,
      "imizde": 2467,
      "lüman": 2468,
      "Müs": 2469,
      "hayal": 2470,
      "olmadığı": 2471,
      "varlık": 2472,
      "kazandır": 2473,
      "esna": 2474,
      "anlamına": 2475,
      "23": 2476,
      "mıyor": 2477,
      "doktor": 2478,
      "lanıyor": 2479,
      "teşek": 2480,
      "ilgi": 2481,
      "keş": 2482,
      "ayın": 2483,
      "Belediy": 2484,
      "kit": 2485,
      "Kür": 2486,
      "Yön": 2487,
      "yaygın": 2488,
      "sürede": 2489,
      "motor": 2490,
      "bula": 2491,
      "beş": 2492,
      "kişilerin": 2493,
      "hac": 2494,
      "Tur": 2495,
      "larımızın": 2496,
      "est": 2497,
      "Gör": 2498,
      "Tra": 2499,
      "elerinde": 2500,
      "asıl": 2501,
      "ök": 2502,
      "yerek": 2503,
      "alışveriş": 2504,
      "doldur": 2505,
      "isa": 2506,
      "Öğ": 2507,
      "yaşama": 2508,
      "sok": 2509,
      "80": 2510,
      "yapabilirsiniz": 2511,
      "olduğunuz": 2512,
      "mail": 2513,
      "mayın": 2514,
      "lider": 2515,
      "onların": 2516,
      "iddia": 2517,
      "ilim": 2518,
      "Şimdi": 2519,
      "anlık": 2520,
      "yılı": 2521,
      "popüler": 2522,
      "başlan": 2523,
      "eğlen": 2524,
      "pp": 2525,
      "alarak": 2526,
      "gece": 2527,
      "Yatır": 2528,
      "dosya": 2529,
      "gerektir": 2530,
      "veriyor": 2531,
      "mekan": 2532,
      "dost": 2533,
      "gerektiğini": 2534,
      "Ger": 2535,
      "yazılım": 2536,
      "muha": 2537,
      "önünde": 2538,
      "yandan": 2539,
      "leriniz": 2540,
      "değişim": 2541,
      "fiyatları": 2542,
      "uluslararası": 2543,
      "ann": 2544,
      "lıklı": 2545,
      "kayna": 2546,
      "sorumlu": 2547,
      "olası": 2548,
      "ediyoruz": 2549,
      "ulması": 2550,
      "ürünleri": 2551,
      "yık": 2552,
      "yeter": 2553,
      "Uy": 2554,
      "tıcı": 2555,
      "lenmesi": 2556,
      "dart": 2557,
      "Mes": 2558,
      "ınca": 2559,
      "maliyet": 2560,
      "lenme": 2561,
      "kuru": 2562,
      "toprak": 2563,
      "işle": 2564,
      "aday": 2565,
      "yaşanan": 2566,
      "formu": 2567,
      "Google": 2568,
      "ğından": 2569,
      "ayında": 2570,
      "Yar": 2571,
      "Dr": 2572,
      "Alt": 2573,
      "rem": 2574,
      "bizi": 2575,
      "mesinin": 2576,
      "muz": 2577,
      "dola": 2578,
      "sunuyor": 2579,
      "Gü": 2580,
      "mızı": 2581,
      "saldırı": 2582,
      "Kom": 2583,
      "Böylece": 2584,
      "bileceğini": 2585,
      "etme": 2586,
      "önceki": 2587,
      "Can": 2588,
      "terna": 2589,
      "İk": 2590,
      "inç": 2591,
      "defa": 2592,
      "Çocuk": 2593,
      "vardı": 2594,
      "eğit": 2595,
      "larımızı": 2596,
      "fiyatı": 2597,
      "muştur": 2598,
      "psik": 2599,
      "hbet": 2600,
      "etmeye": 2601,
      "yaptığ": 2602,
      "asım": 2603,
      "teşekkür": 2604,
      "yse": 2605,
      "ihtiyac": 2606,
      "takdir": 2607,
      "kesinlikle": 2608,
      "müşteriler": 2609,
      "kum": 2610,
      "savun": 2611,
      "yeri": 2612,
      "beni": 2613,
      "edildi": 2614,
      "kas": 2615,
      "Kasım": 2616,
      "anlamda": 2617,
      "zaten": 2618,
      "Kend": 2619,
      "özgür": 2620,
      "Af": 2621,
      "İzmir": 2622,
      "zım": 2623,
      "baskı": 2624,
      "dünyada": 2625,
      "beyaz": 2626,
      "kala": 2627,
      "meslek": 2628,
      "Banka": 2629,
      "Bey": 2630,
      "onlar": 2631,
      "Yatırım": 2632,
      "Aş": 2633,
      "niyet": 2634,
      "kitab": 2635,
      "inansal": 2636,
      "edeceğ": 2637,
      "eyiz": 2638,
      "mutlu": 2639,
      "ürünler": 2640,
      "balık": 2641,
      "tiğimiz": 2642,
      "yazılı": 2643,
      "adımı": 2644,
      "henüz": 2645,
      "eriş": 2646,
      "İç": 2647,
      "Han": 2648,
      "doğrul": 2649,
      "üçüncü": 2650,
      "zorun": 2651,
      "anlay": 2652,
      "şeyler": 2653,
      "puan": 2654,
      "Müdür": 2655,
      "kampanya": 2656,
      "güc": 2657,
      "doğrudan": 2658,
      "Eğitim": 2659,
      "etkinlik": 2660,
      "kazanmak": 2661,
      "Şirket": 2662,
      "sonraki": 2663,
      "birik": 2664,
      "çevr": 2665,
      "çerçe": 2666,
      "birisi": 2667,
      "hakkı": 2668,
      "memek": 2669,
      "yapmaya": 2670,
      "senin": 2671,
      "Bin": 2672,
      "ikili": 2673,
      "ınızda": 2674,
      "ölçü": 2675,
      "yavaş": 2676,
      "çevir": 2677,
      "Türkçe": 2678,
      "eşil": 2679,
      "resmi": 2680,
      "başlar": 2681,
      "davranış": 2682,
      "Peki": 2683,
      "ac": 2684,
      "temin": 2685,
      "İngiliz": 2686,
      "ehir": 2687,
      "mişti": 2688,
      "bayan": 2689,
      "ww": 2690,
      "amaz": 2691,
      "detaylı": 2692,
      "üstü": 2693,
      "pet": 2694,
      "olmadan": 2695,
      "cep": 2696,
      "başta": 2697,
      "yem": 2698,
      "alanı": 2699,
      "başar": 2700,
      "Sur": 2701,
      "şiddet": 2702,
      "katılım": 2703,
      "masının": 2704,
      "mük": 2705,
      "hizmetleri": 2706,
      "aile": 2707,
      "paket": 2708,
      "ydı": 2709,
      "cılar": 2710,
      "yeten": 2711,
      "gösteren": 2712,
      "malar": 2713,
      "olursa": 2714,
      "ladığı": 2715,
      "akıllı": 2716,
      "dern": 2717,
      "ikti": 2718,
      "blo": 2719,
      "199": 2720,
      "azal": 2721,
      "doğrultu": 2722,
      "heye": 2723,
      "bot": 2724,
      "cat": 2725,
      "manı": 2726,
      "Web": 2727,
      "Sen": 2728,
      "ediyorum": 2729,
      "İnternet": 2730,
      "büyü": 2731,
      "Kad": 2732,
      "ledik": 2733,
      "yılda": 2734,
      "tehlik": 2735,
      "bette": 2736,
      "görüyor": 2737,
      "edebilir": 2738,
      "biy": 2739,
      "söylem": 2740,
      "beklent": 2741,
      "Pol": 2742,
      "kış": 2743,
      "mız": 2744,
      "karşısında": 2745,
      "eksiyon": 2746,
      "vücu": 2747,
      "basın": 2748,
      "kategor": 2749,
      "Orta": 2750,
      "serma": 2751,
      "amel": 2752,
      "yıllarda": 2753,
      "Ah": 2754,
      "öldür": 2755,
      "kenin": 2756,
      "görmek": 2757,
      "one": 2758,
      "alına": 2759,
      "bilinen": 2760,
      "Bunu": 2761,
      "kullanımı": 2762,
      "grafik": 2763,
      "etkisi": 2764,
      "madı": 2765,
      "öyl": 2766,
      "eceği": 2767,
      "husu": 2768,
      "öne": 2769,
      "siyasi": 2770,
      "mec": 2771,
      "dikleri": 2772,
      "hala": 2773,
      "Ter": 2774,
      "zam": 2775,
      "teknoloji": 2776,
      "kullanılır": 2777,
      "döneminde": 2778,
      "Fir": 2779,
      "Fil": 2780,
      "gül": 2781,
      "arada": 2782,
      "gıda": 2783,
      "pen": 2784,
      "ternatif": 2785,
      "ettir": 2786,
      "önüne": 2787,
      "las": 2788,
      "kararı": 2789,
      "Buna": 2790,
      "içine": 2791,
      "geçerli": 2792,
      "ısı": 2793,
      "70": 2794,
      "çiler": 2795,
      "devr": 2796,
      "dağ": 2797,
      "olumlu": 2798,
      "Ek": 2799,
      "Be": 2800,
      "biçimde": 2801,
      "dahi": 2802,
      "Kay": 2803,
      "kurt": 2804,
      "yürü": 2805,
      "ura": 2806,
      "aylık": 2807,
      "ödül": 2808,
      "Sadece": 2809,
      "tarihinde": 2810,
      "port": 2811,
      "kendisine": 2812,
      "tesis": 2813,
      "uyar": 2814,
      "aşırı": 2815,
      "500": 2816,
      "dığım": 2817,
      "standart": 2818,
      "özelliği": 2819,
      "içeren": 2820,
      "eygam": 2821,
      "kullanılmak": 2822,
      "büt": 2823,
      "otomatik": 2824,
      "bahs": 2825,
      "iade": 2826,
      "cinsel": 2827,
      "müda": 2828,
      "Müslüman": 2829,
      "lenir": 2830,
      "Yük": 2831,
      "imin": 2832,
      "olanak": 2833,
      "düşür": 2834,
      "yerleştir": 2835,
      "personel": 2836,
      "şif": 2837,
      "bl": 2838,
      "Kiş": 2839,
      "çaba": 2840,
      "Bakanlığı": 2841,
      "ali": 2842,
      "borç": 2843,
      "ateş": 2844,
      "aşa": 2845,
      "Kap": 2846,
      "ale": 2847,
      "veriler": 2848,
      "liğe": 2849,
      "kus": 2850,
      "Har": 2851,
      "insanın": 2852,
      "merkezi": 2853,
      "hüc": 2854,
      "ımızı": 2855,
      "bede": 2856,
      "iyileş": 2857,
      "lisans": 2858,
      "eks": 2859,
      "öp": 2860,
      "yılın": 2861,
      "fe": 2862,
      "şikayet": 2863,
      "aşağıdaki": 2864,
      "futbol": 2865,
      "ulur": 2866,
      "belki": 2867,
      "no": 2868,
      "sonucunda": 2869,
      "escort": 2870,
      "trans": 2871,
      "Ver": 2872,
      "eleş": 2873,
      "lanabilir": 2874,
      "sohbet": 2875,
      "tığımız": 2876,
      "olmuştur": 2877,
      "ücut": 2878,
      "elerden": 2879,
      "önlem": 2880,
      "faktör": 2881,
      "vvet": 2882,
      "eylem": 2883,
      "yaparken": 2884,
      "iste": 2885,
      "vadeli": 2886,
      "gide": 2887,
      "taşın": 2888,
      "alacak": 2889,
      "olmaktadır": 2890,
      "Bay": 2891,
      "ünlü": 2892,
      "Ulu": 2893,
      "nedeni": 2894,
      "hayata": 2895,
      "resim": 2896,
      "yanıt": 2897,
      "yerleş": 2898,
      "zu": 2899,
      "eygamber": 2900,
      "vb": 2901,
      "istiyorum": 2902,
      "hassa": 2903,
      "memiş": 2904,
      "Se": 2905,
      "lığına": 2906,
      "aza": 2907,
      "yaşı": 2908,
      "çocuğ": 2909,
      "2019": 2910,
      "teklif": 2911,
      "Ol": 2912,
      "ciler": 2913,
      "tarif": 2914,
      "dit": 2915,
      "işleri": 2916,
      "yasak": 2917,
      "şüp": 2918,
      "bilgilendir": 2919,
      "sefere": 2920,
      "malısınız": 2921,
      "zz": 2922,
      "hafif": 2923,
      "sebeb": 2924,
      "lebilir": 2925,
      "şun": 2926,
      "sunun": 2927,
      "uzur": 2928,
      "iliyor": 2929,
      "sınav": 2930,
      "larım": 2931,
      "düzenli": 2932,
      "lanmıştır": 2933,
      "olmasına": 2934,
      "haki": 2935,
      "dikten": 2936,
      "cağım": 2937,
      "hesabı": 2938,
      "Sav": 2939,
      "etin": 2940,
      "Osmanlı": 2941,
      "lanacak": 2942,
      "Em": 2943,
      "ındır": 2944,
      "lanmaktadır": 2945,
      "kendine": 2946,
      "sizlik": 2947,
      "tığını": 2948,
      "talya": 2949,
      "hikay": 2950,
      "gesi": 2951,
      "istiyorsanız": 2952,
      "tere": 2953,
      "tarz": 2954,
      "işlemler": 2955,
      "beden": 2956,
      "finansal": 2957,
      "Anadolu": 2958,
      "dahaki": 2959,
      "vakit": 2960,
      "tarayıcıya": 2961,
      "tansiy": 2962,
      "satım": 2963,
      "alternatif": 2964,
      "bebek": 2965,
      "kanser": 2966,
      "rakam": 2967,
      "asla": 2968,
      "traf": 2969,
      "değeri": 2970,
      "larındaki": 2971,
      "uyum": 2972,
      "keyi": 2973,
      "ıla": 2974,
      "belirten": 2975,
      "kıl": 2976,
      "sayede": 2977,
      "alıp": 2978,
      "hukuk": 2979,
      "are": 2980,
      "tarak": 2981,
      "gösterir": 2982,
      "App": 2983,
      "başlangı": 2984,
      "esiyle": 2985,
      "esas": 2986,
      "Belediyesi": 2987,
      "yapacak": 2988,
      "kalı": 2989,
      "gazet": 2990,
      "kargo": 2991,
      "krit": 2992,
      "Hat": 2993,
      "gisi": 2994,
      "unsur": 2995,
      "ze": 2996,
      "jin": 2997,
      "Ab": 2998,
      "kayde": 2999,
      "yargı": 3000,
      "götür": 3001,
      "gem": 3002,
      "vek": 3003,
      "Müş": 3004,
      "pra": 3005,
      "otomo": 3006,
      "ınızın": 3007,
      "erişim": 3008,
      "Güven": 3009,
      "Ekim": 3010,
      "yerinde": 3011,
      "durumlarda": 3012,
      "algı": 3013,
      "eliğ": 3014,
      "sırada": 3015,
      "nitelik": 3016,
      "eviz": 3017,
      "hap": 3018,
      "Ali": 3019,
      "dip": 3020,
      "....": 3021,
      "süreci": 3022,
      "taban": 3023,
      "bulundu": 3024,
      "dro": 3025,
      "etmesi": 3026,
      "yaptığımda": 3027,
      "emmel": 3028,
      "bazen": 3029,
      "çarp": 3030,
      "pla": 3031,
      "kullanmak": 3032,
      "tok": 3033,
      "lıklar": 3034,
      "Sağlık": 3035,
      "bunların": 3036,
      "lardaki": 3037,
      "görülen": 3038,
      "best": 3039,
      "süresi": 3040,
      "fizik": 3041,
      "duğunu": 3042,
      "abet": 3043,
      "çalışmaları": 3044,
      "eleştir": 3045,
      "anne": 3046,
      "silah": 3047,
      "ılmaz": 3048,
      "yönlendir": 3049,
      "zev": 3050,
      "Ülk": 3051,
      "laşma": 3052,
      "ümü": 3053,
      "virüs": 3054,
      "stagram": 3055,
      "Per": 3056,
      "kapan": 3057,
      "Tak": 3058,
      "Dolayı": 3059,
      "işler": 3060,
      "meş": 3061,
      "şer": 3062,
      "kavram": 3063,
      "olmalı": 3064,
      "olduğuna": 3065,
      "alabilirsiniz": 3066,
      "liğin": 3067,
      "lardı": 3068,
      "Ür": 3069,
      "harca": 3070,
      "Tabi": 3071,
      "leyici": 3072,
      "bulunur": 3073,
      "onlara": 3074,
      "ödem": 3075,
      "Ku": 3076,
      "düşüş": 3077,
      "mos": 3078,
      "lığında": 3079,
      "Yak": 3080,
      "ortadan": 3081,
      "özellikleri": 3082,
      "bina": 3083,
      "edilmiş": 3084,
      "yahat": 3085,
      "müzik": 3086,
      "saha": 3087,
      "sorumluluk": 3088,
      "yetiş": 3089,
      "almaktadır": 3090,
      "bundan": 3091,
      "piyasasında": 3092,
      "sağlıyor": 3093,
      "buluş": 3094,
      "ilmektedir": 3095,
      "mümkündür": 3096,
      "aracılığıyla": 3097,
      "sitesinde": 3098,
      "ori": 3099,
      "lanarak": 3100,
      "bunları": 3101,
      "akşam": 3102,
      "Yine": 3103,
      "Si": 3104,
      "Ken": 3105,
      "mayacak": 3106,
      "Sosyal": 3107,
      "lerimizi": 3108,
      "melisiniz": 3109,
      "mali": 3110,
      "Kır": 3111,
      "kayıp": 3112,
      "kurtar": 3113,
      "28": 3114,
      "yoksa": 3115,
      "90": 3116,
      "ımızın": 3117,
      "Bet": 3118,
      "huzur": 3119,
      "kazanma": 3120,
      "lot": 3121,
      "medi": 3122,
      "onav": 3123,
      "yapmanız": 3124,
      "hall": 3125,
      "duvar": 3126,
      "Rusya": 3127,
      "İşlem": 3128,
      "ilmiştir": 3129,
      "2018": 3130,
      "not": 3131,
      "Aralık": 3132,
      "ülkede": 3133,
      "Sonra": 3134,
      "idi": 3135,
      "keyif": 3136,
      "tuk": 3137,
      "ücü": 3138,
      "yabilirsiniz": 3139,
      "rin": 3140,
      "sene": 3141,
      "nüf": 3142,
      "Müşter": 3143,
      "red": 3144,
      "ımızda": 3145,
      "ebilecek": 3146,
      "lediği": 3147,
      "belirtilen": 3148,
      "başı": 3149,
      "sezon": 3150,
      "Res": 3151,
      "becer": 3152,
      "zayı": 3153,
      "Sor": 3154,
      "bunlar": 3155,
      "liye": 3156,
      "siyaset": 3157,
      "güneş": 3158,
      "yle": 3159,
      "heyecan": 3160,
      "mesinde": 3161,
      "sorunu": 3162,
      "dız": 3163,
      "lazım": 3164,
      "unan": 3165,
      "aça": 3166,
      "yürüt": 3167,
      "çalışmalar": 3168,
      "bon": 3169,
      "landığı": 3170,
      "dışarı": 3171,
      "aka": 3172,
      "AK": 3173,
      "binlerce": 3174,
      "çiç": 3175,
      "düzenlem": 3176,
      "mini": 3177,
      "otel": 3178,
      "Amerika": 3179,
      "Et": 3180,
      "geleceğ": 3181,
      "bakan": 3182,
      "yapmış": 3183,
      "çeken": 3184,
      "rez": 3185,
      "yapabilir": 3186,
      "potansiy": 3187,
      "ülkenin": 3188,
      "ayi": 3189,
      "iciler": 3190,
      "Mart": 3191,
      "küresel": 3192,
      "biridir": 3193,
      "adlı": 3194,
      "üğ": 3195,
      "kalp": 3196,
      "olduğundan": 3197,
      "liğine": 3198,
      "Kam": 3199,
      "larımıza": 3200,
      "almış": 3201,
      "bulundur": 3202,
      "demokra": 3203,
      "Çalış": 3204,
      "lal": 3205,
      "siyet": 3206,
      "emeye": 3207,
      "endek": 3208,
      "aydın": 3209,
      "leşme": 3210,
      "ülkemiz": 3211,
      "hayatını": 3212,
      "kullana": 3213,
      "aran": 3214,
      "konuşma": 3215,
      "maktayız": 3216,
      "yolc": 3217,
      "modern": 3218,
      "ayrıntı": 3219,
      "Meh": 3220,
      "the": 3221,
      "yönetimi": 3222,
      "gramı": 3223,
      "firmamız": 3224,
      "terör": 3225,
      "direk": 3226,
      "öden": 3227,
      "Almanya": 3228,
      "sert": 3229,
      "sunan": 3230,
      "atıl": 3231,
      "cağına": 3232,
      "yetiştir": 3233,
      "çat": 3234,
      "birliği": 3235,
      "ürünü": 3236,
      "edip": 3237,
      "süz": 3238,
      "elt": 3239,
      "ticari": 3240,
      "soy": 3241,
      "evde": 3242,
      "doğrultusunda": 3243,
      "üzerindeki": 3244,
      "yıldır": 3245,
      "Sam": 3246,
      "layıcı": 3247,
      "harika": 3248,
      "kırı": 3249,
      "üyle": 3250,
      "26": 3251,
      "eyle": 3252,
      "mesiyle": 3253,
      "wit": 3254,
      "Tan": 3255,
      "düşünüyor": 3256,
      "vücut": 3257,
      "asyonu": 3258,
      "gur": 3259,
      "isinden": 3260,
      "kolayca": 3261,
      "üsü": 3262,
      "Ada": 3263,
      "yım": 3264,
      "vermektedir": 3265,
      "mükemmel": 3266,
      "Dolayısıyla": 3267,
      "kimse": 3268,
      "ht": 3269,
      "itir": 3270,
      "uygulaması": 3271,
      "27": 3272,
      "zih": 3273,
      "demi": 3274,
      "neredeyse": 3275,
      "piy": 3276,
      "kullandı": 3277,
      "Tic": 3278,
      "tasyon": 3279,
      "transfer": 3280,
      "Para": 3281,
      "noktada": 3282,
      "Kadın": 3283,
      "hakları": 3284,
      "çıkıyor": 3285,
      "uar": 3286,
      "Op": 3287,
      "dey": 3288,
      "çalışıyor": 3289,
      "oyunları": 3290,
      "lenmiş": 3291,
      "Kim": 3292,
      "gol": 3293,
      "elektronik": 3294,
      "iptal": 3295,
      "olmalıdır": 3296,
      "maktan": 3297,
      "menizi": 3298,
      "geçer": 3299,
      "nem": 3300,
      "leyerek": 3301,
      "masıyla": 3302,
      "kişiye": 3303,
      "öğrenciler": 3304,
      "danışman": 3305,
      "book": 3306,
      "atın": 3307,
      "gelişim": 3308,
      "orada": 3309,
      "35": 3310,
      "dıklarını": 3311,
      "proje": 3312,
      "bün": 3313,
      "arım": 3314,
      "ildiği": 3315,
      "2017": 3316,
      "demir": 3317,
      "Eylül": 3318,
      "seçenekleri": 3319,
      "kod": 3320,
      "Üst": 3321,
      "kısmı": 3322,
      "uyarı": 3323,
      "Yaş": 3324,
      "Cumhurbaşkanı": 3325,
      "sona": 3326,
      "Ad": 3327,
      "süt": 3328,
      "bağımsız": 3329,
      "mekten": 3330,
      "görsel": 3331,
      "tıp": 3332,
      "işin": 3333,
      "atör": 3334,
      "sap": 3335,
      "polis": 3336,
      "birden": 3337,
      "doğum": 3338,
      "olmasını": 3339,
      "günlerde": 3340,
      "eve": 3341,
      "Mak": 3342,
      "Sev": 3343,
      "maması": 3344,
      "uzey": 3345,
      "gay": 3346,
      "pozit": 3347,
      "zayıf": 3348,
      "Önc": 3349,
      "farkında": 3350,
      "yerel": 3351,
      "Do": 3352,
      "çevrim": 3353,
      "takdirde": 3354,
      "sizler": 3355,
      "Ki": 3356,
      "çu": 3357,
      "vazgeç": 3358,
      "düşünü": 3359,
      "metre": 3360,
      "kuvvet": 3361,
      "gönül": 3362,
      "köp": 3363,
      "kira": 3364,
      "olduğumuz": 3365,
      "Bununla": 3366,
      "hisset": 3367,
      "cilik": 3368,
      "ediliyor": 3369,
      "organiz": 3370,
      "duğunuz": 3371,
      "çıkış": 3372,
      "edim": 3373,
      "yarış": 3374,
      "kıy": 3375,
      "liğinde": 3376,
      "Belediye": 3377,
      "liyat": 3378,
      "far": 3379,
      "cen": 3380,
      "sabah": 3381,
      "yorumlar": 3382,
      "saygı": 3383,
      "Gala": 3384,
      "kamer": 3385,
      "ces": 3386,
      "sini": 3387,
      "beğen": 3388,
      "Hz": 3389,
      "Yu": 3390,
      "Sür": 3391,
      "gelişmeler": 3392,
      "önceden": 3393,
      "elerle": 3394,
      "Ke": 3395,
      "kadro": 3396,
      "tartış": 3397,
      "sinyal": 3398,
      "zamanlarda": 3399,
      "müh": 3400,
      "ıyla": 3401,
      "oyunu": 3402,
      "çap": 3403,
      "anında": 3404,
      "dönüştür": 3405,
      "tatil": 3406,
      "çak": 3407,
      "operasyon": 3408,
      "işte": 3409,
      "mesaf": 3410,
      "şe": 3411,
      "sındaki": 3412,
      "Üniversitesi": 3413,
      "ekib": 3414,
      "etkilen": 3415,
      "sigorta": 3416,
      "uro": 3417,
      "İki": 3418,
      "irken": 3419,
      "tığınız": 3420,
      "maden": 3421,
      "isiyle": 3422,
      "demektir": 3423,
      "meyecek": 3424,
      "yöntemi": 3425,
      "davet": 3426,
      "mediği": 3427,
      "iran": 3428,
      "desteği": 3429,
      "onavirüs": 3430,
      "Ağ": 3431,
      "özen": 3432,
      "gücü": 3433,
      "bakış": 3434,
      "Cumhuriyet": 3435,
      "sabit": 3436,
      "ihtiyacı": 3437,
      "çoğun": 3438,
      "seyahat": 3439,
      "sunul": 3440,
      "tarım": 3441,
      "pazarlama": 3442,
      "lisi": 3443,
      "korku": 3444,
      "aralı": 3445,
      "kendisi": 3446,
      "Piyasa": 3447,
      "herkesin": 3448,
      "ederken": 3449,
      "lıkları": 3450,
      "boya": 3451,
      "örgüt": 3452,
      "luluğu": 3453,
      "Sü": 3454,
      "Gerçek": 3455,
      "fan": 3456,
      "huku": 3457,
      "namaz": 3458,
      "getiren": 3459,
      "hayır": 3460,
      "imkanı": 3461,
      "halı": 3462,
      "Bütün": 3463,
      "Borsa": 3464,
      "cilt": 3465,
      "ulaşabilirsiniz": 3466,
      "rum": 3467,
      "cüm": 3468,
      "arket": 3469,
      "Ho": 3470,
      "yeşil": 3471,
      "muyor": 3472,
      "Bizim": 3473,
      "tacak": 3474,
      "bilmeniz": 3475,
      "Yaz": 3476,
      "öncelikle": 3477,
      "sanal": 3478,
      "iydi": 3479,
      "piş": 3480,
      "Za": 3481,
      "ita": 3482,
      "dikkate": 3483,
      "tedbir": 3484,
      "performans": 3485,
      "platformu": 3486,
      "Konu": 3487,
      "edilmektedir": 3488,
      "mim": 3489,
      "yaşında": 3490,
      "larınızın": 3491,
      "imleri": 3492,
      "adresi": 3493,
      "karış": 3494,
      "deli": 3495,
      "peş": 3496,
      "Den": 3497,
      "iyim": 3498,
      "isan": 3499,
      "Mah": 3500,
      "Man": 3501,
      "istek": 3502,
      "tehdit": 3503,
      "arac": 3504,
      "ihracat": 3505,
      "istediğ": 3506,
      "yola": 3507,
      "bitir": 3508,
      "Bunlar": 3509,
      "Haber": 3510,
      "lığının": 3511,
      "İngiltere": 3512,
      "sul": 3513,
      "Bar": 3514,
      "tüc": 3515,
      "toplu": 3516,
      "almaya": 3517,
      "kartı": 3518,
      "kaldı": 3519,
      "kırmızı": 3520,
      "yağı": 3521,
      "mamış": 3522,
      "yapısı": 3523,
      "ork": 3524,
      "kendisini": 3525,
      "Aslında": 3526,
      "giden": 3527,
      "koruma": 3528,
      "sitede": 3529,
      "ğınızı": 3530,
      "gösteriyor": 3531,
      "edilebilir": 3532,
      "bitk": 3533,
      "sıkı": 3534,
      "evizyon": 3535,
      "29": 3536,
      "Serv": 3537,
      "benzeri": 3538,
      "Uzun": 3539,
      "vel": 3540,
      "hızla": 3541,
      "eyin": 3542,
      "hane": 3543,
      "Temmuz": 3544,
      "vesinde": 3545,
      "ia": 3546,
      "buk": 3547,
      "kaza": 3548,
      "konut": 3549,
      "Böl": 3550,
      "yayım": 3551,
      "söylü": 3552,
      "göç": 3553,
      "zevk": 3554,
      "ceğini": 3555,
      "numara": 3556,
      "üyelik": 3557,
      "rahatsız": 3558,
      "parçası": 3559,
      "terek": 3560,
      "Benim": 3561,
      "lamış": 3562,
      "zorunlu": 3563,
      "gördüğ": 3564,
      "cebook": 3565,
      "serbest": 3566,
      "Yüksek": 3567,
      "diğim": 3568,
      "kısıt": 3569,
      "Yo": 3570,
      "memiz": 3571,
      "Mal": 3572,
      "gelenek": 3573,
      "olmadı": 3574,
      "piyasası": 3575,
      "makal": 3576,
      "İyi": 3577,
      "Kısa": 3578,
      "ene": 3579,
      "kurtul": 3580,
      "iyer": 3581,
      "yapım": 3582,
      "insanları": 3583,
      "edilecek": 3584,
      "çevres": 3585,
      "memesi": 3586,
      "toplumsal": 3587,
      "işç": 3588,
      "imk": 3589,
      "şirketi": 3590,
      "sektöründe": 3591,
      "kişilik": 3592,
      "sunar": 3593,
      "lezz": 3594,
      "Oyun": 3595,
      "kla": 3596,
      "kafa": 3597,
      "amaçlı": 3598,
      "nu": 3599,
      "manıza": 3600,
      "Hatta": 3601,
      "büny": 3602,
      "anım": 3603,
      "vik": 3604,
      "anlayış": 3605,
      "memur": 3606,
      "elç": 3607,
      "mevzu": 3608,
      "mekteyiz": 3609,
      "gözlem": 3610,
      "45": 3611,
      "finans": 3612,
      "etki": 3613,
      "çalışır": 3614,
      "başlama": 3615,
      "okuy": 3616,
      "kısım": 3617,
      "durdur": 3618,
      "gr": 3619,
      "etraf": 3620,
      "aktiv": 3621,
      "İkin": 3622,
      "ilgilen": 3623,
      "leyin": 3624,
      "duğumuz": 3625,
      "kurumsal": 3626,
      "bozuk": 3627,
      "liliğ": 3628,
      "bölgesinde": 3629,
      "alınması": 3630,
      "bez": 3631,
      "iletişime": 3632,
      "komisyon": 3633,
      "tiler": 3634,
      "elem": 3635,
      "Re": 3636,
      "araba": 3637,
      "sebebi": 3638,
      "sınırlı": 3639,
      "elerinden": 3640,
      "vücud": 3641,
      "İran": 3642,
      "edile": 3643,
      "lüt": 3644,
      "büyüm": 3645,
      "ömür": 3646,
      "kaçın": 3647,
      "birinci": 3648,
      "mesel": 3649,
      "tüccar": 3650,
      "uluyor": 3651,
      "yüküm": 3652,
      "bulunma": 3653,
      "Bul": 3654,
      "ino": 3655,
      "unuzu": 3656,
      "etleri": 3657,
      "öncesi": 3658,
      "giderek": 3659,
      "tane": 3660,
      "vaka": 3661,
      "Sal": 3662,
      "pas": 3663,
      "yoluyla": 3664,
      "ilişki": 3665,
      "olabilirsiniz": 3666,
      "sokak": 3667,
      "sayılı": 3668,
      "Artık": 3669,
      "Bahis": 3670,
      "sağlam": 3671,
      "bür": 3672,
      "kapalı": 3673,
      "büs": 3674,
      "Amerik": 3675,
      "suyu": 3676,
      "soğuk": 3677,
      "dizi": 3678,
      "ıldığı": 3679,
      "luluğ": 3680,
      "trend": 3681,
      "öğretim": 3682,
      "zir": 3683,
      "metr": 3684,
      "paylaşım": 3685,
      "maktır": 3686,
      "siyonu": 3687,
      "kıymet": 3688,
      "ucuz": 3689,
      "abilecek": 3690,
      "Mayı": 3691,
      "kapat": 3692,
      "eğitimi": 3693,
      "Ocak": 3694,
      "düzenlen": 3695,
      "rekabet": 3696,
      "ümüzdeki": 3697,
      "istih": 3698,
      "fiziksel": 3699,
      "düzenlenen": 3700,
      "uyan": 3701,
      "çekme": 3702,
      "Kullanıcı": 3703,
      "and": 3704,
      "yerini": 3705,
      "içeriğ": 3706,
      "sorgu": 3707,
      "yur": 3708,
      "Hiç": 3709,
      "doku": 3710,
      "kanun": 3711,
      "çerçevesinde": 3712,
      "2016": 3713,
      "Tam": 3714,
      "barındır": 3715,
      "yatırımcılar": 3716,
      "kaynağı": 3717,
      "adlandır": 3718,
      "Net": 3719,
      "tüğ": 3720,
      "paz": 3721,
      "tuğ": 3722,
      "Peygamber": 3723,
      "Rü": 3724,
      "Batı": 3725,
      "ölçüde": 3726,
      "Mayıs": 3727,
      "ağaç": 3728,
      "gündem": 3729,
      "Deniz": 3730,
      "güçlendir": 3731,
      "doğu": 3732,
      "Yunan": 3733,
      "yıllar": 3734,
      "çağrı": 3735,
      "karıştır": 3736,
      "pr": 3737,
      "sinin": 3738,
      "yönetic": 3739,
      "broker": 3740,
      "kalın": 3741,
      "yaklaşım": 3742,
      "mada": 3743,
      "çocuklar": 3744,
      "biliyoruz": 3745,
      "ina": 3746,
      "besin": 3747,
      "hasar": 3748,
      "jinal": 3749,
      "duyar": 3750,
      "oldukları": 3751,
      "Mehmet": 3752,
      "kullanılabilir": 3753,
      "yenilik": 3754,
      "rast": 3755,
      "bis": 3756,
      "benz": 3757,
      "Genç": 3758,
      "vermiş": 3759,
      "tatürk": 3760,
      "Kaz": 3761,
      "ettiğini": 3762,
      "Gir": 3763,
      "ulaştır": 3764,
      "olanlar": 3765,
      "kolaylaştır": 3766,
      "geler": 3767,
      "bilinç": 3768,
      "Mev": 3769,
      "Atatürk": 3770,
      "Milli": 3771,
      "bahçe": 3772,
      "açıdan": 3773,
      "Açık": 3774,
      "belirtti": 3775,
      "anlama": 3776,
      "Birçok": 3777,
      "Suriye": 3778,
      "lediğ": 3779,
      "Ticaret": 3780,
      "meyin": 3781,
      "medik": 3782,
      "Beş": 3783,
      "yiye": 3784,
      "verilir": 3785,
      "enflasyon": 3786,
      "anan": 3787,
      "Facebook": 3788,
      "dokun": 3789,
      "Hizmet": 3790,
      "isiz": 3791,
      "miktarda": 3792,
      "bilme": 3793,
      "Sistem": 3794,
      "civar": 3795,
      "kendilerine": 3796,
      "programı": 3797,
      "boğ": 3798,
      "kök": 3799,
      "sebebiyle": 3800,
      "diyen": 3801,
      "emen": 3802,
      "reh": 3803,
      "sunulan": 3804,
      "Met": 3805,
      "Hep": 3806,
      "lemeye": 3807,
      "cık": 3808,
      "aykırı": 3809,
      "hayatı": 3810,
      "ortamda": 3811,
      "öğrenci": 3812,
      "lerimizin": 3813,
      "Kürt": 3814,
      "aittir": 3815,
      "anah": 3816,
      "çay": 3817,
      "Bo": 3818,
      "olacağını": 3819,
      "suy": 3820,
      "şeker": 3821,
      "kriz": 3822,
      "aşk": 3823,
      "yalan": 3824,
      "gelmiş": 3825,
      "key": 3826,
      "giren": 3827,
      "içindeki": 3828,
      "yapıldı": 3829,
      "Teknik": 3830,
      "lamanın": 3831,
      "kaldıraç": 3832,
      "pratik": 3833,
      "başlat": 3834,
      "anahtar": 3835,
      "Te": 3836,
      "liliği": 3837,
      "söyleye": 3838,
      "dünyaya": 3839,
      "tatlı": 3840,
      "otomobil": 3841,
      "ülkemizde": 3842,
      "Musta": 3843,
      "iktidar": 3844,
      "ilişkiler": 3845,
      "lanmak": 3846,
      "alıcı": 3847,
      "eğin": 3848,
      "sana": 3849,
      "hakim": 3850,
      "Cen": 3851,
      "36": 3852,
      "işlev": 3853,
      "kalma": 3854,
      "zinc": 3855,
      "tit": 3856,
      "kesim": 3857,
      "sof": 3858,
      "tablo": 3859,
      "yayınlanan": 3860,
      "Yüz": 3861,
      "robot": 3862,
      "link": 3863,
      "gizli": 3864,
      "sayıl": 3865,
      "terap": 3866,
      "ürünlerin": 3867,
      "etmeniz": 3868,
      "harf": 3869,
      "Li": 3870,
      "kağı": 3871,
      "Kurulu": 3872,
      "yaşıyor": 3873,
      "genelinde": 3874,
      "olduğunda": 3875,
      "fabr": 3876,
      "iyiz": 3877,
      "liğinin": 3878,
      "Çev": 3879,
      "akl": 3880,
      "sayf": 3881,
      "zek": 3882,
      "vermeye": 3883,
      "isterseniz": 3884,
      "oranları": 3885,
      "Bah": 3886,
      "lıp": 3887,
      "ruf": 3888,
      "Ham": 3889,
      "artan": 3890,
      "çiçek": 3891,
      "kimlik": 3892,
      "kaçır": 3893,
      "karşılık": 3894,
      "kel": 3895,
      "Proj": 3896,
      "celi": 3897,
      "gili": 3898,
      "bakımından": 3899,
      "istedik": 3900,
      "garanti": 3901,
      "Mustafa": 3902,
      "taleb": 3903,
      "süreçte": 3904,
      "tma": 3905,
      "amik": 3906,
      "sunmaktadır": 3907,
      "ry": 3908,
      "üstün": 3909,
      "leyebilirsiniz": 3910,
      "potansiyel": 3911,
      "kims": 3912,
      "rüya": 3913,
      "fı": 3914,
      "başlangıç": 3915,
      "emi": 3916,
      "Bilg": 3917,
      "larınıza": 3918,
      "ürünün": 3919,
      "şarkı": 3920,
      "HP": 3921,
      "Sonu": 3922,
      "iken": 3923,
      "söylen": 3924,
      "Haziran": 3925,
      "vası": 3926,
      "arken": 3927,
      "geçiş": 3928,
      "imizden": 3929,
      "teşvik": 3930,
      "açıklamada": 3931,
      "yakı": 3932,
      "kullanan": 3933,
      "diyerek": 3934,
      "görünüm": 3935,
      "kullanıcılar": 3936,
      "eytin": 3937,
      "Hayat": 3938,
      "seviye": 3939,
      "kapsamlı": 3940,
      "ullah": 3941,
      "birini": 3942,
      "Yan": 3943,
      "Haf": 3944,
      "neği": 3945,
      "kanıt": 3946,
      "böylece": 3947,
      "Pan": 3948,
      "çocukların": 3949,
      "görür": 3950,
      "Spor": 3951,
      "layacak": 3952,
      "kullanma": 3953,
      "sorunun": 3954,
      "hey": 3955,
      "sorunları": 3956,
      "göl": 3957,
      "yaptığınız": 3958,
      "yetkil": 3959,
      "türk": 3960,
      "TV": 3961,
      "incelem": 3962,
      "tıklayın": 3963,
      "verecek": 3964,
      "ıma": 3965,
      "tanış": 3966,
      "çalışması": 3967,
      "demo": 3968,
      "Zira": 3969,
      "taz": 3970,
      "takv": 3971,
      "verimli": 3972,
      "ülü": 3973,
      "sör": 3974,
      "sağlayacak": 3975,
      "kullanılmaktadır": 3976,
      "saf": 3977,
      "maddi": 3978,
      "lit": 3979,
      "forma": 3980,
      "belirterek": 3981,
      "mede": 3982,
      "mevcuttur": 3983,
      "Millet": 3984,
      "sonuna": 3985,
      "yaşadığı": 3986,
      "Nisan": 3987,
      "Öğren": 3988,
      "Bağ": 3989,
      "stos": 3990,
      "yard": 3991,
      "gre": 3992,
      "makla": 3993,
      "faydalı": 3994,
      "Ürün": 3995,
      "rail": 3996,
      "sanın": 3997,
      "günümüzde": 3998,
      "ırlar": 3999,
      "blog": 4000,
      "Bundan": 4001,
      "Apple": 4002,
      "ulmuş": 4003,
      "Co": 4004,
      "kadınlar": 4005,
      "isafir": 4006,
      "söylüyor": 4007,
      "şim": 4008,
      "kullanabilirsiniz": 4009,
      "yüzey": 4010,
      "uçak": 4011,
      "depo": 4012,
      "dönüşüm": 4013,
      "roman": 4014,
      "Yer": 4015,
      "birimi": 4016,
      "açıkladı": 4017,
      "tavsiy": 4018,
      "milli": 4019,
      "esin": 4020,
      "kesi": 4021,
      "Hol": 4022,
      "bölümü": 4023,
      "düm": 4024,
      "Göz": 4025,
      "lütfen": 4026,
      "politik": 4027,
      "derec": 4028,
      "Gül": 4029,
      "mis": 4030,
      "yönünde": 4031,
      "kapsa": 4032,
      "firması": 4033,
      "At": 4034,
      "Tes": 4035,
      "Kişisel": 4036,
      "sahib": 4037,
      "yakından": 4038,
      "kavuş": 4039,
      "ron": 4040,
      "yatırma": 4041,
      "çevre": 4042,
      "Yukarı": 4043,
      "sarı": 4044,
      "yapılmış": 4045,
      "gelmektedir": 4046,
      "Demir": 4047,
      "adını": 4048,
      "Yönet": 4049,
      "urken": 4050,
      "nelerdir": 4051,
      "Sitemiz": 4052,
      "nef": 4053,
      "bası": 4054,
      "geçti": 4055,
      "edici": 4056,
      "sonuçlar": 4057,
      "Samsun": 4058,
      "tanesi": 4059,
      "kullanılması": 4060,
      "kred": 4061,
      "senedi": 4062,
      "esnasında": 4063,
      "Günümüzde": 4064,
      "Mad": 4065,
      "Cam": 4066,
      "Hav": 4067,
      "keşf": 4068,
      "denet": 4069,
      "dini": 4070,
      "kalıcı": 4071,
      "yardımı": 4072,
      "vı": 4073,
      "ilçesinde": 4074,
      "düşman": 4075,
      "Onun": 4076,
      "tad": 4077,
      "Doğu": 4078,
      "birinin": 4079,
      "dukları": 4080,
      "yaşındaki": 4081,
      "tartışma": 4082,
      "diyet": 4083,
      "Değ": 4084,
      "Büyükşehir": 4085,
      "layıp": 4086,
      "ettiğiniz": 4087,
      "oyu": 4088,
      "endis": 4089,
      "biçim": 4090,
      "oranında": 4091,
      "Evet": 4092,
      "hükümet": 4093,
      "hor": 4094,
      "Yal": 4095,
      "yerli": 4096,
      "sermaye": 4097,
      "gari": 4098,
      "sistemleri": 4099,
      "alınır": 4100,
      "kendilerini": 4101,
      "indirim": 4102,
      "nik": 4103,
      "Instagram": 4104,
      "yabilir": 4105,
      "bö": 4106,
      "şef": 4107,
      "zorluk": 4108,
      "ceva": 4109,
      "kadınların": 4110,
      "bütç": 4111,
      "ticareti": 4112,
      "ıldığında": 4113,
      "Eski": 4114,
      "yapılmaktadır": 4115,
      "başlıyor": 4116,
      "So": 4117,
      "birbirinden": 4118,
      "gerektiği": 4119,
      "bulmak": 4120,
      "biliyorsunuz": 4121,
      "taşıyan": 4122,
      "birleştir": 4123,
      "şirketin": 4124,
      "belirlenen": 4125,
      "azalt": 4126,
      "Mec": 4127,
      "Arap": 4128,
      "mesinden": 4129,
      "Ber": 4130,
      "aşağıda": 4131,
      "sürecinde": 4132,
      "mikro": 4133,
      "kek": 4134,
      "sebeple": 4135,
      "Kurul": 4136,
      "elbette": 4137,
      "içeriği": 4138,
      "bonusu": 4139,
      "mücadel": 4140,
      "tasarruf": 4141,
      "bekliyor": 4142,
      "dakik": 4143,
      "Sonuç": 4144,
      "fel": 4145,
      "Altın": 4146,
      "Seç": 4147,
      "aralık": 4148,
      "''": 4149,
      "göstermektedir": 4150,
      "Bankası": 4151,
      "mur": 4152,
      "seri": 4153,
      "bölgede": 4154,
      "siteye": 4155,
      "lezzet": 4156,
      "şirketleri": 4157,
      "iyileştir": 4158,
      "askeri": 4159,
      "yıldız": 4160,
      "laj": 4161,
      "kullanıcıların": 4162,
      "kulak": 4163,
      "hepsi": 4164,
      "sanatçı": 4165,
      "sızın": 4166,
      "ideal": 4167,
      "Cas": 4168,
      "eceğiz": 4169,
      "bahç": 4170,
      "köpek": 4171,
      "söyleyen": 4172,
      "insanlara": 4173,
      "günümüz": 4174,
      "dra": 4175,
      "ameliyat": 4176,
      "Üç": 4177,
      "31": 4178,
      "sağlamaktadır": 4179,
      "2015": 4180,
      "Tarih": 4181,
      "amız": 4182,
      "hekim": 4183,
      "tüp": 4184,
      "metin": 4185,
      "bulabilirsiniz": 4186,
      "muhtemel": 4187,
      "liyoruz": 4188,
      "karma": 4189,
      "yn": 4190,
      "maruz": 4191,
      "Antalya": 4192,
      "öğrenmek": 4193,
      "husus": 4194,
      "seçeneği": 4195,
      "hücr": 4196,
      "droid": 4197,
      "sıfır": 4198,
      "bilimsel": 4199,
      "düşünüyorum": 4200,
      "kullanıla": 4201,
      "Ph": 4202,
      "rika": 4203,
      "ordu": 4204,
      "sitenin": 4205,
      "hastalığı": 4206,
      "edildiği": 4207,
      "şiir": 4208,
      "ansı": 4209,
      "TC": 4210,
      "istiyoruz": 4211,
      "Aşağı": 4212,
      "verileri": 4213,
      "tale": 4214,
      "eğilim": 4215,
      "tılması": 4216,
      "nesil": 4217,
      "temizlik": 4218,
      "Pazar": 4219,
      "yayıl": 4220,
      "İkinci": 4221,
      "şeyin": 4222,
      "garant": 4223,
      "kurulu": 4224,
      "isimli": 4225,
      "tılan": 4226,
      "çekici": 4227,
      "ifadelerini": 4228,
      "No": 4229,
      "vergi": 4230,
      "sivil": 4231,
      "onya": 4232,
      "itibariyle": 4233,
      "tesi": 4234,
      "Tel": 4235,
      "lerim": 4236,
      "Küç": 4237,
      "araçları": 4238,
      "aca": 4239,
      "temsilc": 4240,
      "dikkatli": 4241,
      "verim": 4242,
      "yönde": 4243,
      "alar": 4244,
      "Öncelikle": 4245,
      "witter": 4246,
      "imum": 4247,
      "buradan": 4248,
      "denetim": 4249,
      "Uygu": 4250,
      "İsrail": 4251,
      "Bursa": 4252,
      "üretic": 4253,
      "ceğiz": 4254,
      "İçer": 4255,
      "Ağu": 4256,
      "iklim": 4257,
      "def": 4258,
      "izlen": 4259,
      "incelen": 4260,
      "Merkezi": 4261,
      "kendinizi": 4262,
      "gelişmiş": 4263,
      "talık": 4264,
      "Koca": 4265,
      "bünyesinde": 4266,
      "Güney": 4267,
      "uzu": 4268,
      "dolayısıyla": 4269,
      "Bakanı": 4270,
      "kurulan": 4271,
      "olmanız": 4272,
      "çalıştır": 4273,
      "sitesinin": 4274,
      "ati": 4275,
      "Foreks": 4276,
      "anak": 4277,
      "hizmetler": 4278,
      "şiş": 4279,
      "Okul": 4280,
      "Kendi": 4281,
      "verici": 4282,
      "mağaza": 4283,
      "istediği": 4284,
      "televizyon": 4285,
      "Fark": 4286,
      "Kemal": 4287,
      "ilerde": 4288,
      "ahh": 4289,
      "getirdi": 4290,
      "arıza": 4291,
      "zamanı": 4292,
      "Dur": 4293,
      "75": 4294,
      "genin": 4295,
      "bireysel": 4296,
      "ederim": 4297,
      "tutuk": 4298,
      "edebi": 4299,
      "2022": 4300,
      "kork": 4301,
      "işletmeler": 4302,
      "tepe": 4303,
      "sağlığı": 4304,
      "sorunlar": 4305,
      "Kurum": 4306,
      "evden": 4307,
      "leyecek": 4308,
      "gelin": 4309,
      "düzelt": 4310,
      "teli": 4311,
      "Fiyat": 4312,
      "Prof": 4313,
      "fonk": 4314,
      "ws": 4315,
      "198": 4316,
      "pencer": 4317,
      "eceğini": 4318,
      "çekim": 4319,
      "bildiği": 4320,
      "cüz": 4321,
      "koku": 4322,
      "uygulamaları": 4323,
      "iklet": 4324,
      "piyasada": 4325,
      "ülkeler": 4326,
      "nakliyat": 4327,
      "sürece": 4328,
      "hum": 4329,
      "tey": 4330,
      "alabilir": 4331,
      "Bal": 4332,
      "65": 4333,
      "limit": 4334,
      "çevrimiçi": 4335,
      "ilmez": 4336,
      "Ağustos": 4337,
      "ğe": 4338,
      "hali": 4339,
      "siyah": 4340,
      "düzeyde": 4341,
      "Mobil": 4342,
      "Diy": 4343,
      "rad": 4344,
      "Kız": 4345,
      "süren": 4346,
      "Dış": 4347,
      "üretimi": 4348,
      "misafir": 4349,
      "İh": 4350,
      "Küçük": 4351,
      "sün": 4352,
      "insanı": 4353,
      "Dünyanın": 4354,
      "ferans": 4355,
      "edilmiştir": 4356,
      "ektör": 4357,
      "ji": 4358,
      "ılmıştır": 4359,
      "brı": 4360,
      "esef": 4361,
      "öm": 4362,
      "doz": 4363,
      "ulma": 4364,
      "yerden": 4365,
      "nefes": 4366,
      "liler": 4367,
      "hukuki": 4368,
      "ciğer": 4369,
      "dayalı": 4370,
      "Birliği": 4371,
      "Bunların": 4372,
      "Fransa": 4373,
      "tedavisi": 4374,
      "Araştır": 4375,
      "uyoruz": 4376,
      "geldiği": 4377,
      "raman": 4378,
      "üstünde": 4379,
      "oyunun": 4380,
      "www": 4381,
      "beli": 4382,
      "trafik": 4383,
      "petrol": 4384,
      "şunları": 4385,
      "kavra": 4386,
      "Ge": 4387,
      "yatak": 4388,
      "Çoğ": 4389,
      "may": 4390,
      "köş": 4391,
      "zi": 4392,
      "İngilizce": 4393,
      "devrim": 4394,
      "ebilmek": 4395,
      "rit": 4396,
      "oranda": 4397,
      "ord": 4398,
      "oluşturmak": 4399,
      "Hin": 4400,
      "tamir": 4401,
      "Ulus": 4402,
      "karşıya": 4403,
      "İb": 4404,
      "Hes": 4405,
      "tecrüb": 4406,
      "müdahale": 4407,
      "adalet": 4408,
      "MA": 4409,
      "unuzun": 4410,
      "eyebilirsiniz": 4411,
      "lılık": 4412,
      "föy": 4413,
      "ılabilir": 4414,
      "Eş": 4415,
      "miktarı": 4416,
      "iman": 4417,
      "menize": 4418,
      "tepki": 4419,
      "ulaşmak": 4420,
      "bedel": 4421,
      "mit": 4422,
      "modelleri": 4423,
      "altyapı": 4424,
      "park": 4425,
      "Düz": 4426,
      "vererek": 4427,
      "endü": 4428,
      "çizg": 4429,
      "endiş": 4430,
      "seni": 4431,
      "büyüme": 4432,
      "isyen": 4433,
      "ente": 4434,
      "haberleri": 4435,
      "güm": 4436,
      "bitcoin": 4437,
      "ılmaktadır": 4438,
      "Sul": 4439,
      "yöntemleri": 4440,
      "avu": 4441,
      "melerini": 4442,
      "sakin": 4443,
      "modeli": 4444,
      "unuza": 4445,
      "kaya": 4446,
      "Kül": 4447,
      "konularda": 4448,
      "evren": 4449,
      "kusur": 4450,
      "tıkları": 4451,
      "Zaman": 4452,
      "market": 4453,
      "bebeğ": 4454,
      "getirmek": 4455,
      "rakip": 4456,
      "The": 4457,
      "2014": 4458,
      "yılından": 4459,
      "ısır": 4460,
      "sağlama": 4461,
      "suret": 4462,
      "hazırlanan": 4463,
      "tamamı": 4464,
      "yatırımcıların": 4465,
      "arzu": 4466,
      "ofis": 4467,
      "etkiler": 4468,
      "riski": 4469,
      "sinir": 4470,
      "qu": 4471,
      "piyasaya": 4472,
      "duruma": 4473,
      "Parti": 4474,
      "olama": 4475,
      "kitl": 4476,
      "toz": 4477,
      "300": 4478,
      "kahve": 4479,
      "söylemek": 4480,
      "coğraf": 4481,
      "yolları": 4482,
      "Dem": 4483,
      "Canlı": 4484,
      "yapın": 4485,
      "sonuçları": 4486,
      "yiyecek": 4487,
      "inşaat": 4488,
      "stres": 4489,
      "geril": 4490,
      "Fener": 4491,
      "değin": 4492,
      "bugüne": 4493,
      "şans": 4494,
      "yönlü": 4495,
      "pt": 4496,
      "dat": 4497,
      "ettiğimiz": 4498,
      "ding": 4499,
      "şüph": 4500,
      "işleme": 4501,
      "orman": 4502,
      "uyku": 4503,
      "Uzman": 4504,
      "arik": 4505,
      "ücreti": 4506,
      "akadem": 4507,
      "makam": 4508,
      "alanları": 4509,
      "Cov": 4510,
      "buraya": 4511,
      "kültürel": 4512,
      "yumur": 4513,
      "kopya": 4514,
      "Du": 4515,
      "tein": 4516,
      "brıs": 4517,
      "Çer": 4518,
      "hid": 4519,
      "alışkan": 4520,
      "Şubat": 4521,
      "şaşır": 4522,
      "birbirine": 4523,
      "yumuş": 4524,
      "eğini": 4525,
      "müdür": 4526,
      "alet": 4527,
      "düşünül": 4528,
      "olacağı": 4529,
      "uyumlu": 4530,
      "Le": 4531,
      "olmayı": 4532,
      "layabilirsiniz": 4533,
      "Binomo": 4534,
      "alması": 4535,
      "dönemi": 4536,
      "esiz": 4537,
      "edek": 4538,
      "öylelikle": 4539,
      "Doğru": 4540,
      "parti": 4541,
      "öncelik": 4542,
      "sergil": 4543,
      "müsa": 4544,
      "undaki": 4545,
      "geleneksel": 4546,
      "Yor": 4547,
      "fırsatı": 4548,
      "acaktır": 4549,
      "akış": 4550,
      "süs": 4551,
      "Rab": 4552,
      "meyve": 4553,
      "dayanık": 4554,
      "Kol": 4555,
      "Kat": 4556,
      "ast": 4557,
      "kalır": 4558,
      "alanlarda": 4559,
      "Üy": 4560,
      "organizasyon": 4561,
      "birer": 4562,
      "linik": 4563,
      "ismi": 4564,
      "artesi": 4565,
      "yenilen": 4566,
      "rehber": 4567,
      "koronavirüs": 4568,
      "Hastan": 4569,
      "Covid": 4570,
      "sitesine": 4571,
      "ğan": 4572,
      "kalk": 4573,
      "tival": 4574,
      "görevi": 4575,
      "birleş": 4576,
      "bakır": 4577,
      "olmaması": 4578,
      "Android": 4579,
      "İm": 4580,
      "ilginç": 4581,
      "sözleşme": 4582,
      "Yapılan": 4583,
      "karşılaştır": 4584,
      ".)": 4585,
      "dekor": 4586,
      "yıllardır": 4587,
      "korumak": 4588,
      "sunduğu": 4589,
      "Has": 4590,
      "desi": 4591,
      "Yah": 4592,
      "Müz": 4593,
      "kimi": 4594,
      "erv": 4595,
      "mağdur": 4596,
      "lerimize": 4597,
      "buz": 4598,
      "Ce": 4599,
      "açılan": 4600,
      "Kıbrıs": 4601,
      "kasa": 4602,
      "Yol": 4603,
      "ülebilir": 4604,
      "güzellik": 4605,
      "ımın": 4606,
      "işçi": 4607,
      "memektedir": 4608,
      "cıların": 4609,
      "Düş": 4610,
      "batı": 4611,
      "karşımıza": 4612,
      "liyet": 4613,
      "kriter": 4614,
      "ulusal": 4615,
      "izle": 4616,
      "hır": 4617,
      "yetenek": 4618,
      "kamera": 4619,
      "lerken": 4620,
      "bileş": 4621,
      "okur": 4622,
      "Amerikan": 4623,
      "distan": 4624,
      "maaş": 4625,
      "salg": 4626,
      "çeş": 4627,
      "dalg": 4628,
      "çıkma": 4629,
      "Başka": 4630,
      "kale": 4631,
      "hassas": 4632,
      "İkili": 4633,
      "ust": 4634,
      "55": 4635,
      "alakalı": 4636,
      "Var": 4637,
      "kelime": 4638,
      "farkı": 4639,
      "tabii": 4640,
      "müştür": 4641,
      "Sat": 4642,
      "seyir": 4643,
      "sanayi": 4644,
      "enizi": 4645,
      "genelde": 4646,
      "Jo": 4647,
      "çatı": 4648,
      "sertif": 4649,
      "damar": 4650,
      "yaptıkları": 4651,
      "SE": 4652,
      "görüyoruz": 4653,
      "gereği": 4654,
      "Elek": 4655,
      "jen": 4656,
      "yapılabilir": 4657,
      "şartları": 4658,
      "süredir": 4659,
      "we": 4660,
      "gerektiğ": 4661,
      "yönel": 4662,
      "İst": 4663,
      "noktası": 4664,
      "günün": 4665,
      "alesef": 4666,
      "ire": 4667,
      "48": 4668,
      "kişilere": 4669,
      "belediye": 4670,
      "simum": 4671,
      "mün": 4672,
      "ihtimal": 4673,
      "çıkarı": 4674,
      "Ef": 4675,
      "yaptığımız": 4676,
      "kli": 4677,
      "cm": 4678,
      "egzer": 4679,
      "içerir": 4680,
      "çalışmak": 4681,
      "bilgilere": 4682,
      "aşkın": 4683,
      "bazıları": 4684,
      "tih": 4685,
      "Part": 4686,
      "ünüyor": 4687,
      "harekete": 4688,
      "pozitif": 4689,
      "yazılmış": 4690,
      "kaybı": 4691,
      "yükselt": 4692,
      "eyim": 4693,
      "day": 4694,
      "utu": 4695,
      "renkli": 4696,
      "cısı": 4697,
      "kuma": 4698,
      "bahar": 4699,
      "km": 4700,
      "şap": 4701,
      "rik": 4702,
      "Az": 4703,
      "teminat": 4704,
      "Yurt": 4705,
      "stratejisi": 4706,
      "inanç": 4707,
      "kaydetti": 4708,
      "ment": 4709,
      "umut": 4710,
      "elinde": 4711,
      "etkileş": 4712,
      "yapıldığı": 4713,
      "ulaşa": 4714,
      "düşen": 4715,
      "harita": 4716,
      "hediye": 4717,
      "mantık": 4718,
      "çey": 4719,
      "ufak": 4720,
      "aldığınız": 4721,
      "bilgilerin": 4722,
      "Fransız": 4723,
      "donanım": 4724,
      "landa": 4725,
      "Hay": 4726,
      "halka": 4727,
      "uğraş": 4728,
      "ederiz": 4729,
      "ebil": 4730,
      "nakit": 4731,
      "seb": 4732,
      "günden": 4733,
      "lerindeki": 4734,
      "teor": 4735,
      "daşı": 4736,
      "işletme": 4737,
      "yükseliş": 4738,
      "sizleri": 4739,
      "beslenme": 4740,
      "geçtiğimiz": 4741,
      "iba": 4742,
      "yangın": 4743,
      "barış": 4744,
      "olabilecek": 4745,
      "Aydın": 4746,
      "terk": 4747,
      "boyu": 4748,
      "derecede": 4749,
      "gündeme": 4750,
      "Ekon": 4751,
      "yapmayı": 4752,
      "teşem": 4753,
      "lukla": 4754,
      "muhal": 4755,
      "oluşur": 4756,
      "akar": 4757,
      "keyifli": 4758,
      "arat": 4759,
      "turizm": 4760,
      "Gerek": 4761,
      "Ekonom": 4762,
      "Tay": 4763,
      "buyur": 4764,
      "alındı": 4765,
      "lig": 4766,
      "gördük": 4767,
      "öncesinde": 4768,
      "gecik": 4769,
      "Jap": 4770,
      "direnç": 4771,
      "duruş": 4772,
      "kesint": 4773,
      "cağımız": 4774,
      "ekonomi": 4775,
      "cüzdan": 4776,
      "adeta": 4777,
      "yükümlül": 4778,
      "uluğ": 4779,
      "OS": 4780,
      "eğlenceli": 4781,
      "Tabii": 4782,
      "mosyon": 4783,
      "Üstelik": 4784,
      "Mut": 4785,
      "lerinize": 4786,
      "Gru": 4787,
      "oksi": 4788,
      "üniversite": 4789,
      "uldu": 4790,
      "Po": 4791,
      "olursunuz": 4792,
      "blok": 4793,
      "tasaray": 4794,
      "yıka": 4795,
      "geçici": 4796,
      "sigara": 4797,
      "kadının": 4798,
      "ağız": 4799,
      "desteğ": 4800,
      "ndan": 4801,
      "uygulanan": 4802,
      "vs": 4803,
      "üyüş": 4804,
      "kıyas": 4805,
      "dalga": 4806,
      "başlı": 4807,
      "usul": 4808,
      "Phone": 4809,
      "kenar": 4810,
      "Galatasaray": 4811,
      "verilerin": 4812,
      "gereklidir": 4813,
      "Ch": 4814,
      "yolcu": 4815,
      "dolaş": 4816,
      "kolaylıkla": 4817,
      "görüşmeler": 4818,
      "bilgisi": 4819,
      "Bi": 4820,
      "Euro": 4821,
      "kıyafet": 4822,
      "ılıyor": 4823,
      "Med": 4824,
      "gerekse": 4825,
      "felse": 4826,
      "memnuniyet": 4827,
      "okun": 4828,
      "istihdam": 4829,
      "oyunlar": 4830,
      "Uluslararası": 4831,
      "Sig": 4832,
      "yüzünden": 4833,
      "verme": 4834,
      "deprem": 4835,
      "deneme": 4836,
      "ulaşım": 4837,
      "Twitter": 4838,
      "zat": 4839,
      "çocuğun": 4840,
      "fonksiyon": 4841,
      "önde": 4842,
      "çerezler": 4843,
      "güvenliği": 4844,
      "psikolojik": 4845,
      "uygulan": 4846,
      "firmalar": 4847,
      "deneyimi": 4848,
      "klasik": 4849,
      "kanın": 4850,
      "fabrika": 4851,
      "tasarımı": 4852,
      "kurs": 4853,
      "işgal": 4854,
      "kimyasal": 4855,
      "görünüyor": 4856,
      "etmez": 4857,
      "ekibi": 4858,
      "tanıtım": 4859,
      "lıç": 4860,
      "Men": 4861,
      "civarında": 4862,
      "seks": 4863,
      "rahatlıkla": 4864,
      "Win": 4865,
      "bölümünde": 4866,
      "hatırla": 4867,
      "denir": 4868,
      "Yazı": 4869,
      "temas": 4870,
      "eral": 4871,
      "La": 4872,
      "33": 4873,
      "Des": 4874,
      "ova": 4875,
      "Halk": 4876,
      "Elektr": 4877,
      "Ahmet": 4878,
      "zincir": 4879,
      "altını": 4880,
      "diniz": 4881,
      "minimum": 4882,
      "mamak": 4883,
      "ud": 4884,
      "Gazi": 4885,
      "lerdeki": 4886,
      "rahim": 4887,
      "masında": 4888,
      "pil": 4889,
      "mediğ": 4890,
      "Kö": 4891,
      "bildirim": 4892,
      "yaşamak": 4893,
      "verildi": 4894,
      "yapıyoruz": 4895,
      "Kah": 4896,
      "ihtiyacınız": 4897,
      "laşık": 4898,
      "mezun": 4899,
      "Zaten": 4900,
      "etmeyi": 4901,
      "Öğret": 4902,
      "mahal": 4903,
      "sıvı": 4904,
      "Pek": 4905,
      "slot": 4906,
      "tuz": 4907,
      "kere": 4908,
      "buğ": 4909,
      "allah": 4910,
      "44": 4911,
      "çalışmaya": 4912,
      "Sultan": 4913,
      "zeme": 4914,
      "imen": 4915,
      "Beşik": 4916,
      "mahkem": 4917,
      "bine": 4918,
      "Sı": 4919,
      "Sayın": 4920,
      "nam": 4921,
      "işlen": 4922,
      "kaynaklı": 4923,
      "gelmesi": 4924,
      "Online": 4925,
      "madığı": 4926,
      "Sanat": 4927,
      "çelik": 4928,
      "yenil": 4929,
      "görülür": 4930,
      "Rüyada": 4931,
      "bank": 4932,
      "kullanıyor": 4933,
      "ikat": 4934,
      "koruy": 4935,
      "yapımı": 4936,
      "Mic": 4937,
      "acağız": 4938,
      "portföy": 4939,
      "Baz": 4940,
      "Lig": 4941,
      "ceksiniz": 4942,
      "etken": 4943,
      "kalite": 4944,
      "tabak": 4945,
      "yetkili": 4946,
      "eklem": 4947,
      "alınarak": 4948,
      "katılan": 4949,
      "firmaları": 4950,
      "Sah": 4951,
      "nan": 4952,
      "açmak": 4953,
      "tedarik": 4954,
      "çıkara": 4955,
      "hip": 4956,
      "ilmesini": 4957,
      "edeki": 4958,
      "güne": 4959,
      "yürür": 4960,
      "omuz": 4961,
      "Ex": 4962,
      "kutu": 4963,
      "açıkça": 4964,
      "Fenerbahçe": 4965,
      "gayret": 4966,
      "mül": 4967,
      "Herhangi": 4968,
      "değişken": 4969,
      "latma": 4970,
      "Müdürlüğü": 4971,
      "İsl": 4972,
      "dolarlık": 4973,
      "PK": 4974,
      "yaşlı": 4975,
      "aklı": 4976,
      "hayatta": 4977,
      "tüketic": 4978,
      "profil": 4979,
      "üretilen": 4980,
      "amac": 4981,
      "Ermen": 4982,
      "ly": 4983,
      "ebiliyor": 4984,
      "yıla": 4985,
      "soruştur": 4986,
      "Şehir": 4987,
      "metal": 4988,
      "olduklarını": 4989,
      "anlaşma": 4990,
      "Dil": 4991,
      "konfor": 4992,
      "anet": 4993,
      "yakıt": 4994,
      "gerçekleştirilen": 4995,
      "sez": 4996,
      "mutluluk": 4997,
      "ilerden": 4998,
      "utan": 4999,
      "mühendis": 5000,
      "yaşaya": 5001,
      "Dan": 5002,
      "maksimum": 5003,
      "verilmesi": 5004,
      "olmasıdır": 5005,
      "isteyenler": 5006,
      "ob": 5007,
      "tası": 5008,
      "Beşiktaş": 5009,
      "Afrika": 5010,
      "Öte": 5011,
      "2013": 5012,
      "açılış": 5013,
      "cektir": 5014,
      "ülmesi": 5015,
      "düşünce": 5016,
      "bizlere": 5017,
      "ederler": 5018,
      "fatura": 5019,
      "hareketli": 5020,
      "ğım": 5021,
      "Nasıl": 5022,
      "seven": 5023,
      "bilgiye": 5024,
      "Şah": 5025,
      "kabı": 5026,
      "Gö": 5027,
      "yapması": 5028,
      "Trab": 5029,
      "beklenen": 5030,
      "kitabı": 5031,
      "süreli": 5032,
      "ism": 5033,
      "yerlerde": 5034,
      "birikim": 5035,
      "Farklı": 5036,
      "gidiyor": 5037,
      "sahn": 5038,
      "farklılık": 5039,
      "önemi": 5040,
      "üyesi": 5041,
      "aktivit": 5042,
      "stil": 5043,
      "leyebilir": 5044,
      "sunucu": 5045,
      "yapılıyor": 5046,
      "taahh": 5047,
      "olmanın": 5048,
      "masraf": 5049,
      "doğa": 5050,
      "Güneş": 5051,
      "Yönetim": 5052,
      "odaklı": 5053,
      "sitemizde": 5054,
      "Tu": 5055,
      "vadede": 5056,
      "udi": 5057,
      "Vak": 5058,
      "yolunda": 5059,
      "anız": 5060,
      "grubu": 5061,
      "vize": 5062,
      "leyic": 5063,
      "herkese": 5064,
      "kazanan": 5065,
      "laf": 5066,
      "düğünü": 5067,
      "sed": 5068,
      "vas": 5069,
      "bağır": 5070,
      "haval": 5071,
      "tesli": 5072,
      "bulunması": 5073,
      "etmiştir": 5074,
      "lamanız": 5075,
      "mimar": 5076,
      "Kuzey": 5077,
      "pren": 5078,
      "larken": 5079,
      "filmi": 5080,
      "Arka": 5081,
      "hazırlık": 5082,
      "irler": 5083,
      "uygulamalar": 5084,
      "leniyor": 5085,
      "acil": 5086,
      "rej": 5087,
      "Ci": 5088,
      "larıdır": 5089,
      "yüzlerce": 5090,
      "işlemlerini": 5091,
      "meme": 5092,
      "Alan": 5093,
      "iPhone": 5094,
      "dua": 5095,
      "diklerini": 5096,
      "strateji": 5097,
      "bizimle": 5098,
      "lığımız": 5099,
      "ondan": 5100,
      "pe": 5101,
      "kullandığı": 5102,
      "lav": 5103,
      "şekli": 5104,
      "şehr": 5105,
      "32": 5106,
      "th": 5107,
      "fiyatlar": 5108,
      "hut": 5109,
      "koca": 5110,
      "uçuş": 5111,
      "tepk": 5112,
      "başlaya": 5113,
      "lok": 5114,
      "önümüzdeki": 5115,
      "lemesi": 5116,
      "enfeksiyon": 5117,
      "gelip": 5118,
      "Kanunu": 5119,
      "komp": 5120,
      "tüketim": 5121,
      "Dolar": 5122,
      "ırım": 5123,
      "isyonu": 5124,
      "Site": 5125,
      "kalem": 5126,
      "Sır": 5127,
      "Güzel": 5128,
      "gök": 5129,
      "Say": 5130,
      "34": 5131,
      "Servisi": 5132,
      "Genellikle": 5133,
      "unca": 5134,
      "sıklıkla": 5135,
      "dışına": 5136,
      "tikçe": 5137,
      "US": 5138,
      "bitki": 5139,
      "çıkacak": 5140,
      "rezerv": 5141,
      "senar": 5142,
      "zemin": 5143,
      "istin": 5144,
      "dından": 5145,
      "verebilir": 5146,
      "eyn": 5147,
      "örneğin": 5148,
      "tılmış": 5149,
      "malzeme": 5150,
      "edeceğiz": 5151,
      "nakliye": 5152,
      "Yok": 5153,
      "yel": 5154,
      "Nak": 5155,
      "koltuk": 5156,
      "sisteminin": 5157,
      "tabilir": 5158,
      "lobal": 5159,
      "Play": 5160,
      "zamanında": 5161,
      "eliği": 5162,
      "aksine": 5163,
      "haba": 5164,
      "anlatan": 5165,
      "unutmayın": 5166,
      "Gök": 5167,
      "cılığı": 5168,
      "Tah": 5169,
      "PS": 5170,
      "yolda": 5171,
      "yukarıda": 5172,
      "şirketler": 5173,
      "çan": 5174,
      "birine": 5175,
      "yedek": 5176,
      "gelmiştir": 5177,
      "Yorum": 5178,
      "dinamik": 5179,
      "plana": 5180,
      "ilave": 5181,
      "Belki": 5182,
      "rekor": 5183,
      "sağlayıcı": 5184,
      "Kültür": 5185,
      "work": 5186,
      "Siya": 5187,
      "etkileri": 5188,
      "grafi": 5189,
      "kurumlar": 5190,
      "400": 5191,
      "ulaştı": 5192,
      "karmaşık": 5193,
      "anlamı": 5194,
      "kalmış": 5195,
      "38": 5196,
      "karbon": 5197,
      "kumar": 5198,
      "sinema": 5199,
      "muhafaz": 5200,
      "devletin": 5201,
      "beyin": 5202,
      "oluşturan": 5203,
      "netic": 5204,
      "muhteşem": 5205,
      "anket": 5206,
      "Un": 5207,
      "Trabzon": 5208,
      "ysa": 5209,
      "teşkil": 5210,
      "dolan": 5211,
      "sorunsuz": 5212,
      "tikten": 5213,
      "toplumun": 5214,
      "nden": 5215,
      "promosyon": 5216,
      "kağıt": 5217,
      "yarışma": 5218,
      "Mahall": 5219,
      "Irak": 5220,
      "hayran": 5221,
      "şehit": 5222,
      "ışıklık": 5223,
      "endeks": 5224,
      "kamp": 5225,
      "geliştirmek": 5226,
      "seyr": 5227,
      "Müşteri": 5228,
      "Herkes": 5229,
      "mediğini": 5230,
      "sürük": 5231,
      "lendi": 5232,
      "yaratıcı": 5233,
      "mor": 5234,
      "bulan": 5235,
      "imizle": 5236,
      "atif": 5237,
      "telif": 5238,
      "bbi": 5239,
      "oluşum": 5240,
      "üstüne": 5241,
      "mater": 5242,
      "yazık": 5243,
      "attı": 5244,
      "kariyer": 5245,
      "numarası": 5246,
      "Teknoloji": 5247,
      "masından": 5248,
      "inizden": 5249,
      "kullanır": 5250,
      "olağan": 5251,
      "yken": 5252,
      "Rek": 5253,
      "dönemlerde": 5254,
      "Mur": 5255,
      "lastik": 5256,
      "Birleş": 5257,
      "dili": 5258,
      "Asya": 5259,
      "yapıp": 5260,
      "tutul": 5261,
      "Baba": 5262,
      "Ker": 5263,
      "türleri": 5264,
      "Mon": 5265,
      "Dav": 5266,
      "hakkını": 5267,
      "lamayı": 5268,
      "rest": 5269,
      "seçimi": 5270,
      "Hava": 5271,
      "kemik": 5272,
      "olmasa": 5273,
      "ladık": 5274,
      "eğe": 5275,
      "hurda": 5276,
      "iyorlar": 5277,
      "doğr": 5278,
      "kup": 5279,
      "piyon": 5280,
      "emli": 5281,
      "alırken": 5282,
      "koşulları": 5283,
      "vah": 5284,
      "halkın": 5285,
      "gerekç": 5286,
      "iyice": 5287,
      "ilmesine": 5288,
      "belge": 5289,
      "durumun": 5290,
      "olmaktan": 5291,
      "yürüyüş": 5292,
      "mevsim": 5293,
      "Elbette": 5294,
      "kaygı": 5295,
      "ölü": 5296,
      "Mem": 5297,
      "pandemi": 5298,
      "ilin": 5299,
      "beklem": 5300,
      "muay": 5301,
      "pir": 5302,
      "anızı": 5303,
      "Mısır": 5304,
      "şahıs": 5305,
      "açma": 5306,
      "insel": 5307,
      "ılarak": 5308,
      "öğrencilerin": 5309,
      "kurucu": 5310,
      "enler": 5311,
      "dolara": 5312,
      "kullanmaya": 5313,
      "atma": 5314,
      "Üret": 5315,
      "zamanlar": 5316,
      "beyan": 5317,
      "sürü": 5318,
      "düşünür": 5319,
      "gurur": 5320,
      "deng": 5321,
      "şirketlerin": 5322,
      "beton": 5323,
      "mekaniz": 5324,
      "To": 5325,
      "hayatın": 5326,
      "gereksin": 5327,
      "Bilim": 5328,
      "rahatsızlık": 5329,
      "misiniz": 5330,
      "Kitap": 5331,
      "arttı": 5332,
      "katkıda": 5333,
      "aley": 5334,
      "Oysa": 5335,
      "ılmasını": 5336,
      "şeye": 5337,
      "müs": 5338,
      "müdahal": 5339,
      "lıkta": 5340,
      "anlamak": 5341,
      "yumurta": 5342,
      "Tas": 5343,
      "Tanrı": 5344,
      "Size": 5345,
      "edebiyat": 5346,
      "Plat": 5347,
      "okuma": 5348,
      "Bazen": 5349,
      "2010": 5350,
      "Onlar": 5351,
      "işini": 5352,
      "pişir": 5353,
      "noktasında": 5354,
      "Hük": 5355,
      "saatleri": 5356,
      "telefonu": 5357,
      "Akdeniz": 5358,
      "Hangi": 5359,
      "yarım": 5360,
      "Cuma": 5361,
      "tül": 5362,
      "verilecek": 5363,
      "lanmaya": 5364,
      "dılar": 5365,
      "öykü": 5366,
      "savunma": 5367,
      "cami": 5368,
      "girdi": 5369,
      "seviyesi": 5370,
      "yaşana": 5371,
      "sektörü": 5372,
      "kok": 5373,
      "sir": 5374,
      "ayn": 5375,
      "gerekirse": 5376,
      "tematik": 5377,
      "şem": 5378,
      "Adana": 5379,
      "197": 5380,
      "DE": 5381,
      "zeytin": 5382,
      "salon": 5383,
      "Kredi": 5384,
      "daa": 5385,
      "Mesela": 5386,
      "Blo": 5387,
      "dows": 5388,
      "salgın": 5389,
      "ula": 5390,
      "Konya": 5391,
      "keme": 5392,
      "sevg": 5393,
      "ress": 5394,
      "Fin": 5395,
      "tanıt": 5396,
      "şeyleri": 5397,
      "alana": 5398,
      "CHP": 5399,
      "lamalar": 5400,
      "lev": 5401,
      "konular": 5402,
      "yapacağınız": 5403,
      "konak": 5404,
      "Azer": 5405,
      "Ardından": 5406,
      "mutfak": 5407,
      "beslen": 5408,
      "ayrıntılı": 5409,
      "diya": 5410,
      "balı": 5411,
      "teknolojik": 5412,
      "hakaret": 5413,
      "azından": 5414,
      "elidir": 5415,
      "geldiğini": 5416,
      "göğ": 5417,
      "sorular": 5418,
      "Bek": 5419,
      "Çek": 5420,
      "had": 5421,
      "asit": 5422,
      "kendinize": 5423,
      "ilmelidir": 5424,
      "gözden": 5425,
      "ettikleri": 5426,
      "37": 5427,
      "zamanlı": 5428,
      "ekipman": 5429,
      "bağlam": 5430,
      "lıyoruz": 5431,
      "gösterg": 5432,
      "estetik": 5433,
      "servisi": 5434,
      "rüz": 5435,
      "Din": 5436,
      "Polit": 5437,
      "ladığımız": 5438,
      "Kripto": 5439,
      "deri": 5440,
      "gösterdi": 5441,
      "tıldı": 5442,
      "kaydı": 5443,
      "meydan": 5444,
      "uf": 5445,
      "Çoğu": 5446,
      "iyan": 5447,
      "kullanılarak": 5448,
      "esnaf": 5449,
      "tipi": 5450,
      "150": 5451,
      "çağır": 5452,
      "olog": 5453,
      "Öyle": 5454,
      "gitmek": 5455,
      "yılının": 5456,
      "hatt": 5457,
      "etkileye": 5458,
      "sunmak": 5459,
      "osu": 5460,
      "ters": 5461,
      "değişen": 5462,
      "İd": 5463,
      "otobüs": 5464,
      "stır": 5465,
      "Belir": 5466,
      "ılacak": 5467,
      "yoruz": 5468,
      "Yardım": 5469,
      "bakter": 5470,
      "kurmak": 5471,
      "ilerle": 5472,
      "niteliğ": 5473,
      "şartı": 5474,
      "Oda": 5475,
      "isteye": 5476,
      "amet": 5477,
      "iyordu": 5478,
      "yör": 5479,
      "layabilir": 5480,
      "yitir": 5481,
      "tablet": 5482,
      "otik": 5483,
      "kahraman": 5484,
      "şansı": 5485,
      "mülk": 5486,
      "Cumhurbaşkan": 5487,
      "seviyesine": 5488,
      "lamaktadır": 5489,
      "inceleme": 5490,
      "rük": 5491,
      "satışa": 5492,
      "bilgilerini": 5493,
      "aylarında": 5494,
      "mm": 5495,
      "bom": 5496,
      "ayla": 5497,
      "hesabınıza": 5498,
      "avukat": 5499,
      "parator": 5500,
      "nö": 5501,
      "Nur": 5502,
      "tılır": 5503,
      "De": 5504,
      "taraftan": 5505,
      "Cumhuriyeti": 5506,
      "şifr": 5507,
      "ende": 5508,
      "AKP": 5509,
      "larımızda": 5510,
      "gördüğü": 5511,
      "cret": 5512,
      "günler": 5513,
      "leyip": 5514,
      "pahalı": 5515,
      "Escort": 5516,
      "çerezleri": 5517,
      "yüzü": 5518,
      "kimsenin": 5519,
      "karşılığında": 5520,
      "alim": 5521,
      "cisi": 5522,
      "Ülkemizde": 5523,
      "durumlar": 5524,
      "serg": 5525,
      "Boğ": 5526,
      "99": 5527,
      "genişlet": 5528,
      "asgari": 5529,
      "yetersiz": 5530,
      "zararlı": 5531,
      "ülkelerin": 5532,
      "şallah": 5533,
      "anlaya": 5534,
      "anlattı": 5535,
      "özellikler": 5536,
      "çıkması": 5537,
      "yapmaktadır": 5538,
      "Süper": 5539,
      "Böylelikle": 5540,
      "Firmamız": 5541,
      "kritik": 5542,
      "parlak": 5543,
      "atmak": 5544,
      "çekti": 5545,
      "Casino": 5546,
      "Yet": 5547,
      "itibarı": 5548,
      "sevgi": 5549,
      "değerlendirme": 5550,
      "Tat": 5551,
      "derg": 5552,
      "hayatına": 5553,
      "görülmektedir": 5554,
      "denk": 5555,
      "makinesi": 5556,
      "read": 5557,
      "dırıcı": 5558,
      "sabır": 5559,
      "direkt": 5560,
      "şır": 5561,
      "jan": 5562,
      "darbe": 5563,
      "yolculuk": 5564,
      "taahhüt": 5565,
      "balaj": 5566,
      "Geçen": 5567,
      "tıktan": 5568,
      "öğrenme": 5569,
      "çözümler": 5570,
      "vid": 5571,
      "Muham": 5572,
      "gelişen": 5573,
      "oluşturur": 5574,
      "ray": 5575,
      "kumaş": 5576,
      "olmaları": 5577,
      "esnek": 5578,
      "İnsanlar": 5579,
      "cal": 5580,
      "Yen": 5581,
      "Film": 5582,
      "duygusal": 5583,
      "Hemen": 5584,
      "içerikleri": 5585,
      "cüml": 5586,
      "hadis": 5587,
      "devreye": 5588,
      "özet": 5589,
      "seviyede": 5590,
      "çekil": 5591,
      "görülüyor": 5592,
      "belediy": 5593,
      "yaprak": 5594,
      "kabil": 5595,
      "Pay": 5596,
      "2012": 5597,
      "Sizin": 5598,
      "yapay": 5599,
      "gerçekleşen": 5600,
      "ruk": 5601,
      "kısaca": 5602,
      "kab": 5603,
      "olanı": 5604,
      "sunuyoruz": 5605,
      "yeme": 5606,
      "46": 5607,
      "akla": 5608,
      "başlamış": 5609,
      "Dep": 5610,
      "ıyorlar": 5611,
      "kısmını": 5612,
      "spek": 5613,
      "kilit": 5614,
      "çekmek": 5615,
      "elle": 5616,
      "alımı": 5617,
      "itör": 5618,
      "talebi": 5619,
      "materyal": 5620,
      "olunca": 5621,
      "gazete": 5622,
      "hu": 5623,
      "Köy": 5624,
      "mavi": 5625,
      "Erkek": 5626,
      "kalitesi": 5627,
      "sitesini": 5628,
      "Şeh": 5629,
      "1000": 5630,
      "maalesef": 5631,
      "zorlu": 5632,
      "çalışmalarını": 5633,
      "getirir": 5634,
      "saniye": 5635,
      "etkileyen": 5636,
      "Ün": 5637,
      "tali": 5638,
      "yayı": 5639,
      "parmak": 5640,
      "kişiyi": 5641,
      "hoca": 5642,
      "ayakkabı": 5643,
      "ebe": 5644,
      "Windows": 5645,
      "SA": 5646,
      "edilerek": 5647,
      "ırk": 5648,
      "idari": 5649,
      "özgürlük": 5650,
      "keyf": 5651,
      "yanına": 5652,
      "Karşı": 5653,
      "metrek": 5654,
      "randev": 5655,
      "orijinal": 5656,
      "prim": 5657,
      "tetik": 5658,
      "disip": 5659,
      "Giz": 5660,
      "yorumları": 5661,
      "hitap": 5662,
      "görmüş": 5663,
      "bağış": 5664,
      "Hakk": 5665,
      "zamanla": 5666,
      "iyel": 5667,
      "miyorum": 5668,
      "Kanun": 5669,
      "dayanıklı": 5670,
      "araçlar": 5671,
      "sos": 5672,
      "eyerek": 5673,
      "memiştir": 5674,
      "Gür": 5675,
      "ekstra": 5676,
      "You": 5677,
      "yetk": 5678,
      "doy": 5679,
      "Fer": 5680,
      "HD": 5681,
      "ST": 5682,
      "kıyı": 5683,
      "dökül": 5684,
      "sizlerin": 5685,
      "mum": 5686,
      "katılımcı": 5687,
      "sürdürülebilir": 5688,
      "vir": 5689,
      "anlayışı": 5690,
      "sembol": 5691,
      "II": 5692,
      "Val": 5693,
      "kaçak": 5694,
      "günah": 5695,
      "geliştirme": 5696,
      "başlayacak": 5697,
      "düzgün": 5698,
      "sektörde": 5699,
      "sizlerle": 5700,
      "firmanın": 5701,
      "çekiyor": 5702,
      "projesi": 5703,
      "bilgilendirme": 5704,
      "almayı": 5705,
      "lemektedir": 5706,
      "yip": 5707,
      "çerçeve": 5708,
      "suretiyle": 5709,
      "itiraz": 5710,
      "geldiğinde": 5711,
      "gelebilir": 5712,
      "yas": 5713,
      "Lo": 5714,
      "projeler": 5715,
      "maçı": 5716,
      "gah": 5717,
      "endüstr": 5718,
      "moda": 5719,
      "Dir": 5720,
      "çapında": 5721,
      "belirlem": 5722,
      "lüğe": 5723,
      "şarj": 5724,
      "ediler": 5725,
      "Çar": 5726,
      "varlığı": 5727,
      "iv": 5728,
      "cunun": 5729,
      "arız": 5730,
      "küf": 5731,
      "poker": 5732,
      "tamin": 5733,
      "dök": 5734,
      "caz": 5735,
      "aşamasında": 5736,
      "arasından": 5737,
      "emti": 5738,
      "tarafında": 5739,
      "denin": 5740,
      "istenen": 5741,
      "Taş": 5742,
      "saydı": 5743,
      "rahi": 5744,
      "sayısının": 5745,
      "düzenleme": 5746,
      "Nit": 5747,
      "lamaları": 5748,
      "yatırımı": 5749,
      "düşündüğ": 5750,
      "uydu": 5751,
      "çalıştı": 5752,
      "lendirme": 5753,
      "sağlanması": 5754,
      "haberler": 5755,
      "olurken": 5756,
      "icra": 5757,
      "kası": 5758,
      "çalışıyoruz": 5759,
      "ölçek": 5760,
      "con": 5761,
      "bilet": 5762,
      "tazmin": 5763,
      "halkı": 5764,
      "payı": 5765,
      "landığını": 5766,
      "yürütü": 5767,
      "Pak": 5768,
      "gitti": 5769,
      "artar": 5770,
      "olmakla": 5771,
      "BM": 5772,
      "kuralları": 5773,
      "enst": 5774,
      "dıkça": 5775,
      "New": 5776,
      "daima": 5777,
      "evlilik": 5778,
      "onaylanma": 5779,
      "değişikliği": 5780,
      "les": 5781,
      "pik": 5782,
      "ışın": 5783,
      "oynamak": 5784,
      "larımızla": 5785,
      "39": 5786,
      "panel": 5787,
      "girer": 5788,
      "ınızdan": 5789,
      "havuz": 5790,
      "NA": 5791,
      "çıkmış": 5792,
      "bilirim": 5793,
      "kuzey": 5794,
      "öv": 5795,
      "analizi": 5796,
      "Sip": 5797,
      "atık": 5798,
      "görebilirsiniz": 5799,
      "ET": 5800,
      "liy": 5801,
      "Hız": 5802,
      "stok": 5803,
      "istifa": 5804,
      "aralarında": 5805,
      "kazana": 5806,
      "alkol": 5807,
      "kırık": 5808,
      "melerine": 5809,
      "Anal": 5810,
      "emem": 5811,
      "hain": 5812,
      "gidip": 5813,
      "fek": 5814,
      "seviyesinde": 5815,
      "Güvenlik": 5816,
      "niha": 5817,
      "duktan": 5818,
      "sizden": 5819,
      "edilemez": 5820,
      "yeterince": 5821,
      "olamaz": 5822,
      "deneyimli": 5823,
      "Sin": 5824,
      "mobilya": 5825,
      "Dok": 5826,
      "nez": 5827,
      "ekipleri": 5828,
      "edilmelidir": 5829,
      "sis": 5830,
      "08": 5831,
      "makine": 5832,
      "kana": 5833,
      "lenin": 5834,
      "yerler": 5835,
      "tutmak": 5836,
      "haftalık": 5837,
      "konuşan": 5838,
      "getiriyor": 5839,
      "uzaktan": 5840,
      "vitam": 5841,
      "Lis": 5842,
      "kadem": 5843,
      "sistemini": 5844,
      "artması": 5845,
      "işbirliği": 5846,
      "döv": 5847,
      "kapsamda": 5848,
      "dınız": 5849,
      "Sarı": 5850,
      "mensu": 5851,
      "tifak": 5852,
      "Mas": 5853,
      "içeri": 5854,
      "malarını": 5855,
      "idar": 5856,
      "sistemin": 5857,
      "Fatih": 5858,
      "dışındaki": 5859,
      "emr": 5860,
      "izlemek": 5861,
      "yata": 5862,
      "değişiklikler": 5863,
      "istikrar": 5864,
      "Çerez": 5865,
      "Yalnız": 5866,
      "liste": 5867,
      "2011": 5868,
      "kör": 5869,
      "kısmında": 5870,
      "Toplum": 5871,
      "kıv": 5872,
      "arlar": 5873,
      "saatte": 5874,
      "kalb": 5875,
      "ja": 5876,
      "tüy": 5877,
      "yağmur": 5878,
      "belgesi": 5879,
      "Cev": 5880,
      "ziyaretç": 5881,
      "bilinir": 5882,
      "medyada": 5883,
      "satışı": 5884,
      "detayları": 5885,
      "2000": 5886,
      "Azerbay": 5887,
      "Ücret": 5888,
      "yapmadan": 5889,
      "ettim": 5890,
      "Bat": 5891,
      "eşi": 5892,
      "teslimat": 5893,
      "tiğiniz": 5894,
      "halen": 5895,
      "yumuşak": 5896,
      "deme": 5897,
      "yararlan": 5898,
      "alanlar": 5899,
      "Tara": 5900,
      "istis": 5901,
      "verg": 5902,
      "sağlayacaktır": 5903,
      "bağlıdır": 5904,
      "likleri": 5905,
      "Öl": 5906,
      "mesle": 5907,
      "açan": 5908,
      "sonsuz": 5909,
      "önerir": 5910,
      "kurgu": 5911,
      "inizle": 5912,
      "iner": 5913,
      "Neden": 5914,
      "bekleniyor": 5915,
      "altındaki": 5916,
      "gelişme": 5917,
      "İtalya": 5918,
      "kaf": 5919,
      "sertifika": 5920,
      "geride": 5921,
      "Hüküm": 5922,
      "ysanız": 5923,
      "sıdır": 5924,
      "topra": 5925,
      "lor": 5926,
      "severler": 5927,
      "olmasının": 5928,
      "ülkelerde": 5929,
      "iliğin": 5930,
      "göstermek": 5931,
      "emizin": 5932,
      "hir": 5933,
      "beraberinde": 5934,
      "sundaki": 5935,
      "öt": 5936,
      "ziya": 5937,
      "Mek": 5938,
      "arasına": 5939,
      "ekmek": 5940,
      "alanına": 5941,
      "istler": 5942,
      "çocukları": 5943,
      "diğine": 5944,
      "maddesi": 5945,
      "saati": 5946,
      "istat": 5947,
      "plastik": 5948,
      "bulut": 5949,
      "antik": 5950,
      "karlı": 5951,
      "Ok": 5952,
      "urum": 5953,
      "üyeleri": 5954,
      "alama": 5955,
      "çekir": 5956,
      "vekil": 5957,
      "oturum": 5958,
      "periy": 5959,
      "karşın": 5960,
      "arayan": 5961,
      "dırma": 5962,
      "sw": 5963,
      "hakkındaki": 5964,
      "tuğu": 5965,
      "taşıyor": 5966,
      "Pet": 5967,
      "mara": 5968,
      "landırma": 5969,
      "tören": 5970,
      "korunması": 5971,
      "hediy": 5972,
      "milyonlarca": 5973,
      "Şam": 5974,
      "açtı": 5975,
      "getirdiği": 5976,
      "nün": 5977,
      "emekli": 5978,
      "sizinle": 5979,
      "olduğum": 5980,
      "iyasanın": 5981,
      "dalgalan": 5982,
      "ong": 5983,
      "kaz": 5984,
      "krem": 5985,
      "kontrolü": 5986,
      "lımı": 5987,
      "şeyden": 5988,
      "tıkan": 5989,
      "tarzı": 5990,
      "Mahallesi": 5991,
      "Selç": 5992,
      "enize": 5993,
      "sözü": 5994,
      "likler": 5995,
      "Selçuk": 5996,
      "yedi": 5997,
      "onarım": 5998,
      "buluştur": 5999,
      "Ren": 6000,
      "harflerle": 6001,
      "oynan": 6002,
      "Ora": 6003,
      "protein": 6004,
      "tecrübe": 6005,
      "Lüt": 6006,
      "sinde": 6007,
      "koruyucu": 6008,
      "artı": 6009,
      "Sp": 6010,
      "edecektir": 6011,
      "ülkeye": 6012,
      "ester": 6013,
      "etiket": 6014,
      "aba": 6015,
      "testi": 6016,
      "bölgeye": 6017,
      "yiz": 6018,
      "arıyor": 6019,
      "sisteme": 6020,
      "tutum": 6021,
      "ağrısı": 6022,
      "ılmasına": 6023,
      "topluluk": 6024,
      "Ra": 6025,
      "çekin": 6026,
      "Rap": 6027,
      "09": 6028,
      "elektrikli": 6029,
      "tv": 6030,
      "Dik": 6031,
      "tikleri": 6032,
      "aler": 6033,
      "lerinizin": 6034,
      "demiş": 6035,
      "Bölüm": 6036,
      "geçiyor": 6037,
      "evinde": 6038,
      "eşsiz": 6039,
      "parayı": 6040,
      "tehlikeli": 6041,
      "konuları": 6042,
      "lediğiniz": 6043,
      "gördü": 6044,
      "sırt": 6045,
      "likte": 6046,
      "bire": 6047,
      "duyurdu": 6048,
      "kaba": 6049,
      "sansör": 6050,
      "Fır": 6051,
      "futbolcu": 6052,
      "Kil": 6053,
      "Muhammed": 6054,
      "Kılıç": 6055,
      "bulaş": 6056,
      "belik": 6057,
      "şunu": 6058,
      "montaj": 6059,
      "teb": 6060,
      "sanki": 6061,
      "Oto": 6062,
      "01": 6063,
      "veriyoruz": 6064,
      "gözük": 6065,
      "lerdi": 6066,
      "içe": 6067,
      "Fi": 6068,
      "Aksi": 6069,
      "değildi": 6070,
      "Kayı": 6071,
      "mahall": 6072,
      "som": 6073,
      "til": 6074,
      "kararlı": 6075,
      "duğum": 6076,
      "tığımızda": 6077,
      "manevi": 6078,
      "His": 6079,
      "yönetmen": 6080,
      "Dijital": 6081,
      "gazetec": 6082,
      "Am": 6083,
      "Ot": 6084,
      "ceğim": 6085,
      "evrak": 6086,
      "cilerin": 6087,
      "fık": 6088,
      "Muh": 6089,
      "hop": 6090,
      "soka": 6091,
      "tın": 6092,
      "seçin": 6093,
      "özgü": 6094,
      "taraftar": 6095,
      "vitamin": 6096,
      "itesi": 6097,
      "sağladığı": 6098,
      "ilçe": 6099,
      "yılına": 6100,
      "Geçtiğimiz": 6101,
      "Günlük": 6102,
      "gelecekte": 6103,
      "önlemek": 6104,
      "Veri": 6105,
      "hang": 6106,
      "tutan": 6107,
      "görüle": 6108,
      "ertel": 6109,
      "içinden": 6110,
      "Araştırma": 6111,
      "ihlal": 6112,
      "doğur": 6113,
      "Of": 6114,
      "bunlara": 6115,
      "Option": 6116,
      "ıf": 6117,
      "ambalaj": 6118,
      "gayet": 6119,
      "sus": 6120,
      "yoktu": 6121,
      "Yayın": 6122,
      "Azerbaycan": 6123,
      "internetten": 6124,
      "Saç": 6125,
      "olduğunun": 6126,
      "insana": 6127,
      "anlı": 6128,
      "Madde": 6129,
      "anlatıyor": 6130,
      "yaza": 6131,
      "geçirmek": 6132,
      "Avu": 6133,
      "konsol": 6134,
      "diven": 6135,
      "sürüm": 6136,
      "hayatında": 6137,
      "yararlana": 6138,
      "idir": 6139,
      "anma": 6140,
      "haftada": 6141,
      "Vatan": 6142,
      "Tarım": 6143,
      "ülür": 6144,
      "emeyen": 6145,
      "ebilmektedir": 6146,
      "yetişkin": 6147,
      "titiz": 6148,
      "ayrimen": 6149,
      "kalmak": 6150,
      "sorumluluğu": 6151,
      "incisi": 6152,
      "aşamada": 6153,
      "düğün": 6154,
      "IP": 6155,
      "doma": 6156,
      "ınar": 6157,
      "ayrimenkul": 6158,
      "bekleyen": 6159,
      "firmaların": 6160,
      "bakımı": 6161,
      "haklı": 6162,
      "veyn": 6163,
      "kullanılmayan": 6164,
      "bağımlı": 6165,
      "masıdır": 6166,
      "vermeden": 6167,
      "kalıp": 6168,
      "işlemlerin": 6169,
      "kurban": 6170,
      "kullanıcıları": 6171,
      "vermesi": 6172,
      "gücünü": 6173,
      "olacaksınız": 6174,
      "jyen": 6175,
      "egemen": 6176,
      "graf": 6177,
      "sistemine": 6178,
      "hapis": 6179,
      "arşi": 6180,
      "avantajlı": 6181,
      "ibadet": 6182,
      "58": 6183,
      "lidir": 6184,
      "Çalışma": 6185,
      "çor": 6186,
      "66": 6187,
      "burun": 6188,
      "arayış": 6189,
      "silin": 6190,
      "bayram": 6191,
      "Yeşil": 6192,
      "Yas": 6193,
      "tre": 6194,
      "yarın": 6195,
      "latya": 6196,
      "eğine": 6197,
      "rat": 6198,
      "içerikler": 6199,
      "vekili": 6200,
      "tuş": 6201,
      "Aile": 6202,
      "aksiyon": 6203,
      "geçmek": 6204,
      "tutun": 6205,
      "tıbbi": 6206,
      "Diyar": 6207,
      "denilen": 6208,
      "sitelerinde": 6209,
      "irti": 6210,
      "leket": 6211,
      "Yunanistan": 6212,
      "Öğretmen": 6213,
      "hür": 6214,
      "sessiz": 6215,
      "05": 6216,
      "belirlemek": 6217,
      "Bana": 6218,
      "esidir": 6219,
      "babası": 6220,
      "demokratik": 6221,
      "larımızdan": 6222,
      "değişimi": 6223,
      "ilerinden": 6224,
      "uzan": 6225,
      "başladığı": 6226,
      "ie": 6227,
      "Temel": 6228,
      "bileceğimiz": 6229,
      "manz": 6230,
      "kaybetti": 6231,
      "onaylanmamaktadır": 6232,
      "belirgin": 6233,
      "Mey": 6234,
      "eleman": 6235,
      "Bas": 6236,
      "ai": 6237,
      "Akıl": 6238,
      "karanlık": 6239,
      "paralar": 6240,
      "düştü": 6241,
      "Hindistan": 6242,
      "sanay": 6243,
      "priz": 6244,
      "zirve": 6245,
      "hesiz": 6246,
      "kodu": 6247,
      "Balık": 6248,
      "ailen": 6249,
      "bedava": 6250,
      "konuyu": 6251,
      "47": 6252,
      "alanlarında": 6253,
      "Car": 6254,
      "sevgil": 6255,
      "jı": 6256,
      "planı": 6257,
      "girerek": 6258,
      "olaylar": 6259,
      "kullanabilir": 6260,
      "Kovid": 6261,
      "kurulum": 6262,
      "mide": 6263,
      "larımı": 6264,
      "umuzu": 6265,
      "terapi": 6266,
      "bulama": 6267,
      "Hu": 6268,
      "evine": 6269,
      "ps": 6270,
      "Rama": 6271,
      "yıldan": 6272,
      "yerleri": 6273,
      "kalıyor": 6274,
      "andan": 6275,
      "dostu": 6276,
      "şehrin": 6277,
      "cinsiyet": 6278,
      "musunuz": 6279,
      "sermay": 6280,
      "vizyon": 6281,
      "girmek": 6282,
      "dilim": 6283,
      "Ru": 6284,
      "bölün": 6285,
      "redde": 6286,
      "elendir": 6287,
      "dünyasında": 6288,
      "Efend": 6289,
      "uygulamaya": 6290,
      "satıcı": 6291,
      "öf": 6292,
      "hızı": 6293,
      "güncellem": 6294,
      "stratejik": 6295,
      "almanız": 6296,
      "ağa": 6297,
      "faf": 6298,
      "dünyayı": 6299,
      "kızı": 6300,
      "Ner": 6301,
      "artırmak": 6302,
      "muhtemelen": 6303,
      "Meclis": 6304,
      "Savaş": 6305,
      "haberdar": 6306,
      "cezası": 6307,
      "Afgan": 6308,
      "kulüp": 6309,
      "ahlak": 6310,
      "Gazet": 6311,
      "cın": 6312,
      "ag": 6313,
      "köken": 6314,
      "liam": 6315,
      "rahmet": 6316,
      "sahipleri": 6317,
      "itibarıyla": 6318,
      "verilmektedir": 6319,
      "uygulanır": 6320,
      "değerleri": 6321,
      "utma": 6322,
      "anlamında": 6323,
      "ladığınız": 6324,
      "göstergesi": 6325,
      "ortamında": 6326,
      "ülkes": 6327,
      "gatif": 6328,
      "tokol": 6329,
      "çatışma": 6330,
      "planda": 6331,
      "yorgun": 6332,
      "ceğiniz": 6333,
      "biliyorum": 6334,
      "esir": 6335,
      "İşlet": 6336,
      "Uygulama": 6337,
      "ney": 6338,
      "bilinmektedir": 6339,
      "tüğü": 6340,
      "lanmasını": 6341,
      "onlarca": 6342,
      "Ni": 6343,
      "nüfus": 6344,
      "senet": 6345,
      "çıktığı": 6346,
      "süper": 6347,
      "esk": 6348,
      "yüze": 6349,
      "Gar": 6350,
      "artışı": 6351,
      "Tük": 6352,
      "eceğiniz": 6353,
      "fikri": 6354,
      "halat": 6355,
      "çoğunlukla": 6356,
      "kendileri": 6357,
      "dakikada": 6358,
      "başlamak": 6359,
      "eksiksiz": 6360,
      "iddaa": 6361,
      "Mersin": 6362,
      "tarihinden": 6363,
      "edenler": 6364,
      "başlık": 6365,
      "Mahkem": 6366,
      "depolama": 6367,
      "arkasında": 6368,
      "kun": 6369,
      "müşterilerine": 6370,
      "Yılmaz": 6371,
      "rengi": 6372,
      "Yağ": 6373,
      "atılan": 6374,
      "istedi": 6375,
      "koz": 6376,
      "gerektiren": 6377,
      "maliyeti": 6378,
      "lanacaktır": 6379,
      "Diyarbakır": 6380,
      "tohum": 6381,
      "250": 6382,
      "çök": 6383,
      "ızın": 6384,
      "delil": 6385,
      "dönemin": 6386,
      "lanıp": 6387,
      "ortamı": 6388,
      "İmam": 6389,
      "güney": 6390,
      "gösterdiği": 6391,
      "cumhur": 6392,
      "Ener": 6393,
      "varyan": 6394,
      "almıştır": 6395,
      "yatırımlar": 6396,
      "Diş": 6397,
      "valtı": 6398,
      "soft": 6399,
      "sağlanır": 6400,
      "bedeli": 6401,
      "bozukluk": 6402,
      "Samsung": 6403,
      "mp": 6404,
      "Kart": 6405,
      "yöntemler": 6406,
      "olgun": 6407,
      "geçerek": 6408,
      "muhalef": 6409,
      "çeşitleri": 6410,
      "akım": 6411,
      "noktaya": 6412,
      "seçenekler": 6413,
      "başa": 6414,
      "bela": 6415,
      "denem": 6416,
      "Gön": 6417,
      "izlem": 6418,
      "izleme": 6419,
      "kaldığı": 6420,
      "kenti": 6421,
      "paranın": 6422,
      "işletim": 6423,
      "buton": 6424,
      "Karadeniz": 6425,
      "buldu": 6426,
      "dilek": 6427,
      "büyüklüğ": 6428,
      "araştırmalar": 6429,
      "ciz": 6430,
      "cinayet": 6431,
      "Başvur": 6432,
      "Fet": 6433,
      "tiyat": 6434,
      "diplo": 6435,
      "Malatya": 6436,
      "ayrım": 6437,
      "başlamıştır": 6438,
      "sağlayabilirsiniz": 6439,
      "yararlı": 6440,
      "paral": 6441,
      "kazanabilirsiniz": 6442,
      "laşması": 6443,
      "Ramazan": 6444,
      "istenilen": 6445,
      "kaplama": 6446,
      "yardımıyla": 6447,
      "çabuk": 6448,
      "malıyız": 6449,
      "Bunlardan": 6450,
      "Başarı": 6451,
      "stratejileri": 6452,
      "alınacak": 6453,
      "imler": 6454,
      "özgün": 6455,
      "TE": 6456,
      "Savaşı": 6457,
      "asa": 6458,
      "sporcu": 6459,
      "Çift": 6460,
      "üb": 6461,
      "ayrıl": 6462,
      "kaş": 6463,
      "tl": 6464,
      "olmayacak": 6465,
      "ity": 6466,
      "dun": 6467,
      "Pen": 6468,
      "hızlandır": 6469,
      "ündeki": 6470,
      "araz": 6471,
      "tarihleri": 6472,
      "ektif": 6473,
      "mevzuat": 6474,
      "kullanın": 6475,
      "geleceği": 6476,
      "adamı": 6477,
      "kaydedil": 6478,
      "sorumluluğ": 6479,
      "dele": 6480,
      "tiyatro": 6481,
      "sunulmaktadır": 6482,
      "ardı": 6483,
      "önemlisi": 6484,
      "ilerleyen": 6485,
      "evin": 6486,
      "çıkarmak": 6487,
      "adımlar": 6488,
      "olabil": 6489,
      "görünür": 6490,
      "vitamini": 6491,
      "hareketi": 6492,
      "Oğ": 6493,
      "mezar": 6494,
      "lığından": 6495,
      "örneği": 6496,
      "itik": 6497,
      "değerini": 6498,
      "hara": 6499,
      "adıyla": 6500,
      "Yaklaşık": 6501,
      "topar": 6502,
      "boru": 6503,
      "Sözleş": 6504,
      "Düzen": 6505,
      "içerisine": 6506,
      "karşılıklı": 6507,
      "içecek": 6508,
      "kazandı": 6509,
      "işlemini": 6510,
      "oyuna": 6511,
      "restoran": 6512,
      "Det": 6513,
      "bahset": 6514,
      "işlemlerinde": 6515,
      "üyeler": 6516,
      "Sipariş": 6517,
      "dedim": 6518,
      "idrar": 6519,
      "birimleri": 6520,
      "lanmasına": 6521,
      "edersiniz": 6522,
      "CO": 6523,
      "Doğal": 6524,
      "aldığımız": 6525,
      "çocuğu": 6526,
      "imet": 6527,
      "yalet": 6528,
      "tutu": 6529,
      "gelerek": 6530,
      "gerç": 6531,
      "lir": 6532,
      "bakıldığında": 6533,
      "Hiçbir": 6534,
      "oid": 6535,
      "Tıp": 6536,
      "sendik": 6537,
      "perde": 6538,
      "referans": 6539,
      "2008": 6540,
      "duğunda": 6541,
      "Dö": 6542,
      "Dar": 6543,
      "Rapor": 6544,
      "dere": 6545,
      "Paşa": 6546,
      "olabiliyor": 6547,
      "aracın": 6548,
      "yoksul": 6549,
      "Roma": 6550,
      "müyor": 6551,
      "nüfu": 6552,
      "artıyor": 6553,
      "sözleşmeler": 6554,
      "sektörünün": 6555,
      "Tama": 6556,
      "günleri": 6557,
      "alb": 6558,
      "İster": 6559,
      "endeksi": 6560,
      "okuyucu": 6561,
      "fazlası": 6562,
      "söyler": 6563,
      "vazgeçilmez": 6564,
      "kaynakları": 6565,
      "Politika": 6566,
      "gibidir": 6567,
      "hariç": 6568,
      "ünüzü": 6569,
      "şir": 6570,
      "cennet": 6571,
      "600": 6572,
      "kazanır": 6573,
      "aldık": 6574,
      "istatistik": 6575,
      "suzluk": 6576,
      "enstrü": 6577,
      "bacak": 6578,
      "zorundadır": 6579,
      "erkekler": 6580,
      "49": 6581,
      "Huk": 6582,
      "bisiklet": 6583,
      "görme": 6584,
      "sül": 6585,
      "sıkça": 6586,
      "sitelerin": 6587,
      "sayısını": 6588,
      "saatlik": 6589,
      "sürücü": 6590,
      "ihtiyaçlarını": 6591,
      "ildiğinde": 6592,
      "etrafında": 6593,
      "email": 6594,
      "kiralama": 6595,
      "geze": 6596,
      "üğü": 6597,
      "çöp": 6598,
      "tanık": 6599,
      "cins": 6600,
      "tis": 6601,
      "hel": 6602,
      "ihmal": 6603,
      "özelliklerini": 6604,
      "ediyorlar": 6605,
      "ısın": 6606,
      "ötürü": 6607,
      "hayırlı": 6608,
      "ilişkileri": 6609,
      "Müdürü": 6610,
      "etmeden": 6611,
      "Bonu": 6612,
      "ıda": 6613,
      "hacmi": 6614,
      "amaçla": 6615,
      "peyn": 6616,
      "göze": 6617,
      "liğinden": 6618,
      "tutarı": 6619,
      "başından": 6620,
      "Beyaz": 6621,
      "gümüş": 6622,
      "tüketici": 6623,
      "onunla": 6624,
      "şub": 6625,
      "hatırlat": 6626,
      "talimat": 6627,
      "açıklandı": 6628,
      "Telef": 6629,
      "kullanıcılara": 6630,
      "amızı": 6631,
      "köprü": 6632,
      "akademik": 6633,
      "hanım": 6634,
      "Günü": 6635,
      "defter": 6636,
      "bulur": 6637,
      "yolunu": 6638,
      "üle": 6639,
      "Ris": 6640,
      "göçmen": 6641,
      "sorunların": 6642,
      "muhafaza": 6643,
      "layınız": 6644,
      "onur": 6645,
      "Üye": 6646,
      "evlen": 6647,
      "ayakta": 6648,
      "olmazsa": 6649,
      "uzaklaş": 6650,
      "düşer": 6651,
      "sevk": 6652,
      "imden": 6653,
      "başlamadan": 6654,
      "zul": 6655,
      "üldü": 6656,
      "kullanıma": 6657,
      "takipçi": 6658,
      "yazımızda": 6659,
      "fit": 6660,
      "kendimi": 6661,
      "komşu": 6662,
      "geçerlidir": 6663,
      "ettiler": 6664,
      "ülkemizin": 6665,
      "konser": 6666,
      "Sanayi": 6667,
      "nitelikli": 6668,
      "konuya": 6669,
      "muştu": 6670,
      "etmem": 6671,
      "olgu": 6672,
      "artman": 6673,
      "başarısız": 6674,
      "bunlardan": 6675,
      "faydalana": 6676,
      "negatif": 6677,
      "tına": 6678,
      "sitelerinin": 6679,
      "Destek": 6680,
      "ate": 6681,
      "antren": 6682,
      "izni": 6683,
      "gelince": 6684,
      "piyasalarında": 6685,
      "kalabalık": 6686,
      "inanılmaz": 6687,
      "luğa": 6688,
      "şiddetli": 6689,
      "tabir": 6690,
      "nereden": 6691,
      "suyun": 6692,
      "yükseldi": 6693,
      "egzersiz": 6694,
      "hijyen": 6695,
      "organik": 6696,
      "Hareket": 6697,
      "Geçmiş": 6698,
      "Rabb": 6699,
      "taksit": 6700,
      "danışmanlık": 6701,
      "imar": 6702,
      "saatlerinde": 6703,
      "196": 6704,
      "bizler": 6705,
      "ulmaz": 6706,
      "temizliği": 6707,
      "spread": 6708,
      "Abd": 6709,
      "çel": 6710,
      "ordin": 6711,
      "budur": 6712,
      "tarihli": 6713,
      "mosfer": 6714,
      "nis": 6715,
      "randevu": 6716,
      "Hasan": 6717,
      "soruları": 6718,
      "eğlence": 6719,
      "oluşturulan": 6720,
      "hayli": 6721,
      "yapılarak": 6722,
      "tahvil": 6723,
      "Micro": 6724,
      "AR": 6725,
      "çeği": 6726,
      "ükle": 6727,
      "dolay": 6728,
      "zamana": 6729,
      "kalacak": 6730,
      "tıpkı": 6731,
      "fikr": 6732,
      "meliyiz": 6733,
      "larınızda": 6734,
      "çıkarak": 6735,
      "tiğinde": 6736,
      "vic": 6737,
      "bizzat": 6738,
      "alımları": 6739,
      "42": 6740,
      "çıkmaktadır": 6741,
      "sesi": 6742,
      "tıklayarak": 6743,
      "mekle": 6744,
      "lılar": 6745,
      "hastanın": 6746,
      "sesuar": 6747,
      "gösterge": 6748,
      "tecrübeli": 6749,
      "Kamu": 6750,
      "sığın": 6751,
      "belirtildi": 6752,
      "Lon": 6753,
      "üntü": 6754,
      "derken": 6755,
      "What": 6756,
      "peygamber": 6757,
      "Nitekim": 6758,
      "dünyasının": 6759,
      "Lütfen": 6760,
      "taç": 6761,
      "atöl": 6762,
      "listesi": 6763,
      "cevab": 6764,
      "bankalar": 6765,
      "isterim": 6766,
      "riskli": 6767,
      "prosed": 6768,
      "tatmin": 6769,
      "merkezli": 6770,
      "bölümde": 6771,
      "Merhaba": 6772,
      "yapabilmek": 6773,
      "eşlik": 6774,
      "oynaya": 6775,
      "izmin": 6776,
      "arkadaşı": 6777,
      "Bilgi": 6778,
      "Normal": 6779,
      "dahilinde": 6780,
      "kusuz": 6781,
      "gönüllü": 6782,
      "Reklam": 6783,
      "numaralı": 6784,
      "faydaları": 6785,
      "hn": 6786,
      "matematik": 6787,
      "bulma": 6788,
      "lediğini": 6789,
      "krizi": 6790,
      "piyasalarda": 6791,
      "İbrahim": 6792,
      "Ömer": 6793,
      "Tren": 6794,
      "başvurusu": 6795,
      "üzeri": 6796,
      "sürüyor": 6797,
      "fo": 6798,
      "işveren": 6799,
      "anlamlı": 6800,
      "emiyor": 6801,
      "vantaj": 6802,
      "konuk": 6803,
      "Sey": 6804,
      "tekli": 6805,
      "Araç": 6806,
      "mevdu": 6807,
      "okumak": 6808,
      "98": 6809,
      "dığınızda": 6810,
      "haric": 6811,
      "cesaret": 6812,
      "atu": 6813,
      "yükselen": 6814,
      "çizgi": 6815,
      "sayılır": 6816,
      "gösteril": 6817,
      "habere": 6818,
      "adresine": 6819,
      "Bol": 6820,
      "kayıtlı": 6821,
      "dengel": 6822,
      "teknolojisi": 6823,
      "Kısaca": 6824,
      "mana": 6825,
      "faaliyetleri": 6826,
      "ailesi": 6827,
      "maddeler": 6828,
      "müte": 6829,
      "programları": 6830,
      "sunum": 6831,
      "dediğimiz": 6832,
      "Murat": 6833,
      "Com": 6834,
      "şampiyon": 6835,
      "vasıta": 6836,
      "Gez": 6837,
      "neticesinde": 6838,
      "çın": 6839,
      "hizmetlerini": 6840,
      "Sitemizde": 6841,
      "SEO": 6842,
      "kati": 6843,
      "Rum": 6844,
      "kaynaklanan": 6845,
      "gerçekleşti": 6846,
      "fuar": 6847,
      "Kaf": 6848,
      "disiplin": 6849,
      "sahibinin": 6850,
      "entegre": 6851,
      "cerrahi": 6852,
      "tabilirsiniz": 6853,
      "bulunmamaktadır": 6854,
      "yaptığını": 6855,
      "fah": 6856,
      "ıyordu": 6857,
      "Hasta": 6858,
      "SS": 6859,
      "yılları": 6860,
      "paylaşmak": 6861,
      "sektörün": 6862,
      "etmekte": 6863,
      "amaşır": 6864,
      "kalitesini": 6865,
      "göv": 6866,
      "satan": 6867,
      "açılır": 6868,
      "Filistin": 6869,
      "boşluk": 6870,
      "Yukarıda": 6871,
      "paralel": 6872,
      "hesaplama": 6873,
      "diğinden": 6874,
      "piyasanın": 6875,
      "ife": 6876,
      "eşliğinde": 6877,
      "çözümü": 6878,
      "dünyadaki": 6879,
      "Ege": 6880,
      "teker": 6881,
      "kaybeden": 6882,
      "melik": 6883,
      "festival": 6884,
      "görüşme": 6885,
      "Başbakan": 6886,
      "devamlı": 6887,
      "kolaydır": 6888,
      "Sel": 6889,
      "dağıt": 6890,
      "tarihe": 6891,
      "bulunmak": 6892,
      "kapital": 6893,
      "olursak": 6894,
      "Hesap": 6895,
      "yeterlidir": 6896,
      "üstlen": 6897,
      "isteğ": 6898,
      "2009": 6899,
      "Por": 6900,
      "ikram": 6901,
      "sindir": 6902,
      "selam": 6903,
      "ahşap": 6904,
      "eğil": 6905,
      "görülebilir": 6906,
      "hakkına": 6907,
      "ışlı": 6908,
      "ihal": 6909,
      "Van": 6910,
      "95": 6911,
      "satır": 6912,
      "belgeler": 6913,
      "yoluna": 6914,
      "Program": 6915,
      "ikisi": 6916,
      "vatandaşlar": 6917,
      "Ceza": 6918,
      "Beni": 6919,
      "Tayyip": 6920,
      "rut": 6921,
      "Bod": 6922,
      "benzersiz": 6923,
      "kesintisiz": 6924,
      "Kral": 6925,
      "Cihaz": 6926,
      "ilti": 6927,
      "by": 6928,
      "Pandemi": 6929,
      "ayrıc": 6930,
      "int": 6931,
      "verdiğimiz": 6932,
      "ilecektir": 6933,
      "kararlar": 6934,
      "takımı": 6935,
      "memleket": 6936,
      "luğunu": 6937,
      "Gelen": 6938,
      "inceleyebilirsiniz": 6939,
      "diyal": 6940,
      "antep": 6941,
      "gelişmeleri": 6942,
      "ziyade": 6943,
      "karşılığı": 6944,
      "vurgulayan": 6945,
      "Arkadaş": 6946,
      "lacaktır": 6947,
      "laştırma": 6948,
      "Zor": 6949,
      "cağınızı": 6950,
      "lıktan": 6951,
      "solun": 6952,
      "reng": 6953,
      "Rece": 6954,
      "göğüs": 6955,
      "leştirme": 6956,
      "gon": 6957,
      "bakın": 6958,
      "ülten": 6959,
      "hesaba": 6960,
      "Erz": 6961,
      "Birleşik": 6962,
      "bence": 6963,
      "gid": 6964,
      "kombin": 6965,
      "şehri": 6966,
      "sömür": 6967,
      "kıymetli": 6968,
      "ço": 6969,
      "43": 6970,
      "taze": 6971,
      "Pat": 6972,
      "Şek": 6973,
      "Anayasa": 6974,
      "Derneği": 6975,
      "başlayabilirsiniz": 6976,
      "Evde": 6977,
      "işlemlerinin": 6978,
      "gerektirir": 6979,
      "tüccarlar": 6980,
      "partner": 6981,
      "lack": 6982,
      "geriye": 6983,
      "MS": 6984,
      "şartlar": 6985,
      "gönderilen": 6986,
      "USD": 6987,
      "Con": 6988,
      "Na": 6989,
      "bant": 6990,
      "Cor": 6991,
      "maların": 6992,
      "yükümlülük": 6993,
      "yapama": 6994,
      "kalkın": 6995,
      "mağaz": 6996,
      "sözleşmesi": 6997,
      "tescil": 6998,
      "here": 6999,
      "açar": 7000,
      "kilometre": 7001,
      "aldım": 7002,
      "Doktor": 7003,
      "57": 7004,
      "tarihte": 7005,
      "baştan": 7006,
      "seviyeye": 7007,
      "haberi": 7008,
      "ağz": 7009,
      "istemez": 7010,
      "çalıştığı": 7011,
      "mıdır": 7012,
      "çik": 7013,
      "Kas": 7014,
      "Kü": 7015,
      "şeffaf": 7016,
      "verin": 7017,
      "Kuş": 7018,
      "Dünyada": 7019,
      "Mac": 7020,
      "kendisinin": 7021,
      "aktör": 7022,
      "sınırları": 7023,
      "sürecini": 7024,
      "çeyrek": 7025,
      "hormon": 7026,
      "Min": 7027,
      "ortasında": 7028,
      "sahipliği": 7029,
      "tarafı": 7030,
      "siyasal": 7031,
      "kurulmuş": 7032,
      "etkisini": 7033,
      "uluğu": 7034,
      "Bize": 7035,
      "okum": 7036,
      "olurlar": 7037,
      "Bilgisayar": 7038,
      "cevabı": 7039,
      "ilham": 7040,
      "İt": 7041,
      "Boz": 7042,
      "sınırsız": 7043,
      "olmasından": 7044,
      "ülasyon": 7045,
      "karan": 7046,
      "basa": 7047,
      "Güm": 7048,
      "efsan": 7049,
      "umuzun": 7050,
      "und": 7051,
      "Adalet": 7052,
      "söyleyebiliriz": 7053,
      "malzemeleri": 7054,
      "Bebek": 7055,
      "satmak": 7056,
      "kullanılamaz": 7057,
      "evet": 7058,
      "çalışmalarına": 7059,
      "bozul": 7060,
      "bulunduğunu": 7061,
      "edebilecek": 7062,
      "enizin": 7063,
      "Trade": 7064,
      "liğiyle": 7065,
      "noktaları": 7066,
      "lerimi": 7067,
      "latı": 7068,
      "olmayabilir": 7069,
      "gözaltına": 7070,
      "resyon": 7071,
      "ble": 7072,
      "ihraç": 7073,
      "Önce": 7074,
      "durma": 7075,
      "arkadaşlar": 7076,
      "nesn": 7077,
      "malzemeler": 7078,
      "çağı": 7079,
      "siteyi": 7080,
      "protokol": 7081,
      "tum": 7082,
      "umuza": 7083,
      "bilgilerinizi": 7084,
      "ıldığını": 7085,
      "Şim": 7086,
      "zafer": 7087,
      "duyuru": 7088,
      "85": 7089,
      "rafik": 7090,
      "duruyor": 7091,
      "akende": 7092,
      "ihtiyaçları": 7093,
      "Bİ": 7094,
      "hattı": 7095,
      "durumuna": 7096,
      "mahkeme": 7097,
      "istedikleri": 7098,
      "olabilmektedir": 7099,
      "Yav": 7100,
      "çeşidi": 7101,
      "taşır": 7102,
      "Sabah": 7103,
      "atmosfer": 7104,
      "duyduğu": 7105,
      "Cem": 7106,
      "Önemli": 7107,
      "Paz": 7108,
      "şahit": 7109,
      "fazlasını": 7110,
      "naz": 7111,
      "baktığımızda": 7112,
      "omi": 7113,
      "diyebiliriz": 7114,
      "aldığını": 7115,
      "sayılan": 7116,
      "Hollanda": 7117,
      "luğun": 7118,
      "rom": 7119,
      "izinsiz": 7120,
      "Süley": 7121,
      "ölçüm": 7122,
      "bununla": 7123,
      "ilde": 7124,
      "getiri": 7125,
      "format": 7126,
      "uygulanması": 7127,
      "Anne": 7128,
      "desen": 7129,
      "İnsanların": 7130,
      "oyuncular": 7131,
      "tavan": 7132,
      "birtakım": 7133,
      "yarattığı": 7134,
      "ilerlem": 7135,
      "asansör": 7136,
      "41": 7137,
      "devir": 7138,
      "Güç": 7139,
      "dağıtım": 7140,
      "görünen": 7141,
      "satıl": 7142,
      "gündüz": 7143,
      "geldik": 7144,
      "arşiv": 7145,
      "çevresinde": 7146,
      "bilgiyi": 7147,
      "meşru": 7148,
      "ekibimiz": 7149,
      "macer": 7150,
      "Far": 7151,
      "Recep": 7152,
      "cir": 7153,
      "aksesuar": 7154,
      "zeka": 7155,
      "Hazır": 7156,
      "İlet": 7157,
      "geçin": 7158,
      "oluşturul": 7159,
      "yapılmalıdır": 7160,
      "üce": 7161,
      "oğl": 7162,
      "sürpriz": 7163,
      "kurumların": 7164,
      "yapıya": 7165,
      "yıkama": 7166,
      "yerleşim": 7167,
      "Ata": 7168,
      "şük": 7169,
      "sözc": 7170,
      "abon": 7171,
      "elaket": 7172,
      "emtia": 7173,
      "saklı": 7174,
      "işten": 7175,
      "ebeveyn": 7176,
      "olabileceğini": 7177,
      "cad": 7178,
      "Gaziantep": 7179,
      "çıkmak": 7180,
      "devre": 7181,
      "medeniyet": 7182,
      "olmuyor": 7183,
      "dans": 7184,
      "ortada": 7185,
      "ink": 7186,
      "ediniz": 7187,
      "sıcaklık": 7188,
      "yaj": 7189,
      "ree": 7190,
      "olanların": 7191,
      "ımızdan": 7192,
      "brek": 7193,
      "ağırlık": 7194,
      "abı": 7195,
      "veç": 7196,
      "çıl": 7197,
      "oluşturuyor": 7198,
      "TO": 7199,
      "umuzda": 7200,
      "ihtimali": 7201,
      "bilirler": 7202,
      "Hast": 7203,
      "Koç": 7204,
      "sahte": 7205,
      "Elektrik": 7206,
      "bilinçli": 7207,
      "hissede": 7208,
      "performansı": 7209,
      "mensup": 7210,
      "forum": 7211,
      "Trum": 7212,
      "varlığını": 7213,
      "kütüp": 7214,
      "duyulan": 7215,
      "editör": 7216,
      "bizden": 7217,
      "Hüs": 7218,
      "bilinc": 7219,
      "dürüst": 7220,
      "lamada": 7221,
      "seans": 7222,
      "yatırımcının": 7223,
      "Kazan": 7224,
      "zehir": 7225,
      "unç": 7226,
      "stratejiler": 7227,
      "bahse": 7228,
      "sade": 7229,
      "kullanımına": 7230,
      "gününde": 7231,
      "lediğimiz": 7232,
      "mesafe": 7233,
      "Bölge": 7234,
      "Plan": 7235,
      "lus": 7236,
      "almadan": 7237,
      "kıyasla": 7238,
      "eğinde": 7239,
      "meyv": 7240,
      "tezi": 7241,
      "esince": 7242,
      "ınır": 7243,
      "Hır": 7244,
      "alınmış": 7245,
      "masyon": 7246,
      "bayrak": 7247,
      "Hafta": 7248,
      "uzay": 7249,
      "ördün": 7250,
      "lerimizde": 7251,
      "tılar": 7252,
      "niş": 7253,
      "Şey": 7254,
      "anlamıyla": 7255,
      "zamandır": 7256,
      "yazılar": 7257,
      "belirlenir": 7258,
      "bütçe": 7259,
      "Lim": 7260,
      "biber": 7261,
      "vefat": 7262,
      "üreten": 7263,
      "bıçak": 7264,
      "Detay": 7265,
      "Sektör": 7266,
      "dizisi": 7267,
      "name": 7268,
      "yerlere": 7269,
      "içerisindeki": 7270,
      "mus": 7271,
      "bölgenin": 7272,
      "atılım": 7273,
      "Yapı": 7274,
      "vol": 7275,
      "senetleri": 7276,
      "onlarla": 7277,
      "fiyata": 7278,
      "Süleyman": 7279,
      "esindeki": 7280,
      "tuval": 7281,
      "mineral": 7282,
      "tive": 7283,
      "adil": 7284,
      "duyu": 7285,
      "bağışıklık": 7286,
      "dilediğiniz": 7287,
      "Güncel": 7288,
      "ettiğim": 7289,
      "alışkanlık": 7290,
      "düşünen": 7291,
      "bölgesi": 7292,
      "amuk": 7293,
      "otos": 7294,
      "sıradan": 7295,
      "verdik": 7296,
      "olabileceği": 7297,
      "olmuştu": 7298,
      "sayfamız": 7299,
      "kahvaltı": 7300,
      "olana": 7301,
      "gerçekleştirmek": 7302,
      "Kes": 7303,
      "somut": 7304,
      "Soru": 7305,
      "Hen": 7306,
      "Yaşam": 7307,
      "rip": 7308,
      "makale": 7309,
      "ekler": 7310,
      "evvel": 7311,
      "dönüm": 7312,
      "?\"": 7313,
      "kili": 7314,
      "Servis": 7315,
      "mod": 7316,
      "Stra": 7317,
      "planlama": 7318,
      "kova": 7319,
      "ikna": 7320,
      "yelpaz": 7321,
      "mahalle": 7322,
      "Hedef": 7323,
      "CE": 7324,
      "je": 7325,
      "okulu": 7326,
      "kaşı": 7327,
      "final": 7328,
      "döngü": 7329,
      "uncu": 7330,
      "Psik": 7331,
      "adlandırılan": 7332,
      "çıkıp": 7333,
      "imle": 7334,
      "Trump": 7335,
      "sözleri": 7336,
      "bini": 7337,
      "konse": 7338,
      "gerçeği": 7339,
      "sağlayarak": 7340,
      "kazandıran": 7341,
      "yenilikçi": 7342,
      "duyarlı": 7343,
      "biler": 7344,
      "çocuklara": 7345,
      "oluşturduğu": 7346,
      "etmenin": 7347,
      "evr": 7348,
      "imalat": 7349,
      "açıklaması": 7350,
      "radyo": 7351,
      "sürdürüyor": 7352,
      "liliğini": 7353,
      "senaryo": 7354,
      "Temiz": 7355,
      "demokrasi": 7356,
      "Don": 7357,
      "dikatör": 7358,
      "daroğlu": 7359,
      "oluşmaktadır": 7360,
      "avantajları": 7361,
      "Pa": 7362,
      "kapanış": 7363,
      "nazar": 7364,
      "yenin": 7365,
      "Ordu": 7366,
      "lüks": 7367,
      "Satış": 7368,
      "isin": 7369,
      "bilmiyor": 7370,
      "dernek": 7371,
      "Kurt": 7372,
      "çıkart": 7373,
      "döner": 7374,
      "ılmaya": 7375,
      "Döviz": 7376,
      "fiyatının": 7377,
      "Bodrum": 7378,
      "mevduat": 7379,
      "buradaki": 7380,
      "coğrafya": 7381,
      "beklet": 7382,
      "hissettir": 7383,
      "ymp": 7384,
      "hassasiyet": 7385,
      "bireylerin": 7386,
      "işlemlerinizi": 7387,
      "hakem": 7388,
      "piyasasının": 7389,
      "uyarınca": 7390,
      "teşhis": 7391,
      "eyici": 7392,
      "kayd": 7393,
      "etmelisiniz": 7394,
      "mecbur": 7395,
      "euro": 7396,
      "konusundaki": 7397,
      "çalışırken": 7398,
      "değerlendirmek": 7399,
      "anılan": 7400,
      "Kir": 7401,
      "karşısına": 7402,
      "arasındadır": 7403,
      "ılmalıdır": 7404,
      "iyatı": 7405,
      "olacağız": 7406,
      "belirtmek": 7407,
      "bakalım": 7408,
      "lise": 7409,
      "paşa": 7410,
      "fırça": 7411,
      "salgını": 7412,
      "dırım": 7413,
      "Organ": 7414,
      "koyun": 7415,
      "merkezinde": 7416,
      "gorit": 7417,
      "organize": 7418,
      "ürünlerini": 7419,
      "Yakın": 7420,
      "dunuz": 7421,
      "Paris": 7422,
      "kontra": 7423,
      "sön": 7424,
      "Bahç": 7425,
      "tabanlı": 7426,
      "hizmete": 7427,
      "inti": 7428,
      "rüzgar": 7429,
      "tığınızda": 7430,
      "Dön": 7431,
      "global": 7432,
      "bro": 7433,
      "işit": 7434,
      "geliştirilen": 7435,
      "tamamını": 7436,
      "atuvar": 7437,
      "Tor": 7438,
      "kiler": 7439,
      "önemini": 7440,
      "felaket": 7441,
      "kast": 7442,
      "sevilen": 7443,
      "düşünün": 7444,
      "oldum": 7445,
      "galib": 7446,
      "doktora": 7447,
      "Aşağıdaki": 7448,
      "Turizm": 7449,
      "kusursuz": 7450,
      "gele": 7451,
      "gelişimi": 7452,
      "atak": 7453,
      "çılık": 7454,
      "örtü": 7455,
      "Is": 7456,
      "Br": 7457,
      "yapmanın": 7458,
      "hastalıkları": 7459,
      "TÜ": 7460,
      "sırala": 7461,
      "keşfet": 7462,
      "endişe": 7463,
      "kombi": 7464,
      ".,": 7465,
      "getiril": 7466,
      "acağı": 7467,
      "hazırlanmış": 7468,
      "Çanak": 7469,
      "yuvar": 7470,
      "Microsoft": 7471,
      "canlandır": 7472,
      "ilişkili": 7473,
      "Tüket": 7474,
      "tavır": 7475,
      "slo": 7476,
      "müşterilerin": 7477,
      "oyunda": 7478,
      "kavramı": 7479,
      "elisiniz": 7480,
      "gidiş": 7481,
      "Biraz": 7482,
      "İçerik": 7483,
      "lini": 7484,
      "Tok": 7485,
      "öncelikli": 7486,
      "Küresel": 7487,
      "maske": 7488,
      "Demokra": 7489,
      "bran": 7490,
      "fazlasıyla": 7491,
      "kullanıcının": 7492,
      "kurtu": 7493,
      "soruşturma": 7494,
      "nar": 7495,
      "olağanüstü": 7496,
      "bulacak": 7497,
      "lenebilir": 7498,
      "tasarlanmış": 7499,
      "haftanın": 7500,
      "daim": 7501,
      "hareketleri": 7502,
      "vermekteyiz": 7503,
      "problemi": 7504,
      "ledim": 7505,
      "gayrimenkul": 7506,
      "bakar": 7507,
      "IQ": 7508,
      "kişiden": 7509,
      "açılması": 7510,
      "düşünceler": 7511,
      "opt": 7512,
      "maat": 7513,
      "yazma": 7514,
      "başarıyla": 7515,
      "ısrar": 7516,
      "günümüze": 7517,
      "böyl": 7518,
      "yüzüne": 7519,
      "ill": 7520,
      "doları": 7521,
      "itler": 7522,
      "gelmez": 7523,
      "yılların": 7524,
      "açabilir": 7525,
      "Yabancı": 7526,
      "koyu": 7527,
      "56": 7528,
      "eyalet": 7529,
      "haklarına": 7530,
      "yerinden": 7531,
      "midir": 7532,
      "utube": 7533,
      "tıkça": 7534,
      "engelli": 7535,
      "hamil": 7536,
      "Yukarıdaki": 7537,
      "Network": 7538,
      "eceğim": 7539,
      "sağladı": 7540,
      "aker": 7541,
      "uşturucu": 7542,
      "Japonya": 7543,
      "Mark": 7544,
      "Çocuğ": 7545,
      "Soğ": 7546,
      "duran": 7547,
      "Futbol": 7548,
      "Opsiyon": 7549,
      "Yemek": 7550,
      "tadını": 7551,
      "masız": 7552,
      "Gerçekten": 7553,
      "yaptım": 7554,
      "Trader": 7555,
      "formasyon": 7556,
      "Ven": 7557,
      "emektedir": 7558,
      "Kılıçdaroğlu": 7559,
      "sahne": 7560,
      "kurallar": 7561,
      "büyüt": 7562,
      "riskini": 7563,
      "Hukuk": 7564,
      "bizleri": 7565,
      "cihazlar": 7566,
      "öporta": 7567,
      "eleme": 7568,
      "yolculuğ": 7569,
      "danışmanlığı": 7570,
      "nereye": 7571,
      "kaçınılmaz": 7572,
      "Unut": 7573,
      "Londra": 7574,
      "düğünde": 7575,
      "giyim": 7576,
      "illa": 7577,
      "lerimizden": 7578,
      "uzmanı": 7579,
      "öğrenebilirsiniz": 7580,
      "izasyon": 7581,
      "avantajı": 7582,
      "olayları": 7583,
      "Orman": 7584,
      "bomba": 7585,
      "şara": 7586,
      "karın": 7587,
      "aldıkları": 7588,
      "Saat": 7589,
      "gezegen": 7590,
      "değiştirmek": 7591,
      "xy": 7592,
      "Me": 7593,
      "yaşandı": 7594,
      "Yıldız": 7595,
      "arta": 7596,
      "yoloj": 7597,
      "dedik": 7598,
      "kutsal": 7599,
      "sürüc": 7600,
      "izler": 7601,
      "göreceksiniz": 7602,
      "yüksektir": 7603,
      "emniyet": 7604,
      "bölgelerde": 7605,
      "banın": 7606,
      "ibaret": 7607,
      "dert": 7608,
      "gördüm": 7609,
      "kuy": 7610,
      "kalması": 7611,
      "mutfa": 7612,
      "sağlanan": 7613,
      "hizmetini": 7614,
      "vatandaşların": 7615,
      "versiyon": 7616,
      "yoldan": 7617,
      "Tab": 7618,
      "kullanılıyor": 7619,
      "lığınız": 7620,
      "uygulamayı": 7621,
      "tılı": 7622,
      "ispat": 7623,
      "Hazret": 7624,
      "edine": 7625,
      "ell": 7626,
      "akra": 7627,
      "durumunu": 7628,
      "geleceğe": 7629,
      "üretici": 7630,
      "turist": 7631,
      "win": 7632,
      "Kanunun": 7633,
      "çözün": 7634,
      "ies": 7635,
      "etkisiyle": 7636,
      "vücudun": 7637,
      "labor": 7638,
      "culuk": 7639,
      "pom": 7640,
      "beklentiler": 7641,
      "hine": 7642,
      "eline": 7643,
      "ithalat": 7644,
      "açın": 7645,
      "kamyon": 7646,
      "Ac": 7647,
      "Alış": 7648,
      "Amaz": 7649,
      "anlatır": 7650,
      "mamızı": 7651,
      "hedefi": 7652,
      "tral": 7653,
      "miyoruz": 7654,
      "yıc": 7655,
      "120": 7656,
      "çilerin": 7657,
      "prosedür": 7658,
      "fatur": 7659,
      "kanseri": 7660,
      "hesapları": 7661,
      "yaratan": 7662,
      "başlayın": 7663,
      "06": 7664,
      "haricinde": 7665,
      "videolar": 7666,
      "cik": 7667,
      "eksikliği": 7668,
      "Sigorta": 7669,
      "öncü": 7670,
      "sünnet": 7671,
      "gebelik": 7672,
      "maçta": 7673,
      "vicdan": 7674,
      "etler": 7675,
      "tıklarını": 7676,
      "baka": 7677,
      "turnu": 7678,
      "çif": 7679,
      "hastalığın": 7680,
      "memnuniyeti": 7681,
      "uyandır": 7682,
      "düzel": 7683,
      "yazılan": 7684,
      "olmayacaktır": 7685,
      "odası": 7686,
      "şidde": 7687,
      "klima": 7688,
      "yapılmıştır": 7689,
      "alya": 7690,
      "zavantaj": 7691,
      "bugünkü": 7692,
      "çam": 7693,
      "stat": 7694,
      "insanlık": 7695,
      "türüdür": 7696,
      "Akıllı": 7697,
      "kula": 7698,
      "oynanan": 7699,
      "haksız": 7700,
      "okula": 7701,
      "anları": 7702,
      "ulaşabilir": 7703,
      "emizi": 7704,
      "delik": 7705,
      "toplamda": 7706,
      "bireyler": 7707,
      "mantıklı": 7708,
      "yüklen": 7709,
      "03": 7710,
      "mektup": 7711,
      "kadına": 7712,
      "Başvuru": 7713,
      "gev": 7714,
      "Sez": 7715,
      "çür": 7716,
      "istediğini": 7717,
      "ulaşan": 7718,
      "müd": 7719,
      "tarihine": 7720,
      "Feder": 7721,
      "yaşamını": 7722,
      "bildirdi": 7723,
      "kullanıldığı": 7724,
      "politikası": 7725,
      "Olymp": 7726,
      "edildiğini": 7727,
      "sürecinin": 7728,
      "mantar": 7729,
      "Örnek": 7730,
      "Emek": 7731,
      "ph": 7732,
      "Yoksa": 7733,
      "döndür": 7734,
      "yapabileceğiniz": 7735,
      "bileceğinizi": 7736,
      "Afganistan": 7737,
      "ilya": 7738,
      "mesleki": 7739,
      "Naz": 7740,
      "ılmak": 7741,
      "lideri": 7742,
      "Ga": 7743,
      "getirerek": 7744,
      "tanrı": 7745,
      "müj": 7746,
      "Türkç": 7747,
      "fiyatlı": 7748,
      "işley": 7749,
      "yazın": 7750,
      "sundan": 7751,
      "yaptıktan": 7752,
      "Mevcut": 7753,
      "ladıktan": 7754,
      "oluşturma": 7755,
      "çamaşır": 7756,
      "fıkra": 7757,
      "Cep": 7758,
      "diğeri": 7759,
      "hepsini": 7760,
      "yansıt": 7761,
      "kendimizi": 7762,
      "lamen": 7763,
      "önlemler": 7764,
      "adımları": 7765,
      "örü": 7766,
      "çanta": 7767,
      "bakanlık": 7768,
      "Yıldırım": 7769,
      "neğ": 7770,
      "ortalı": 7771,
      "ilerinde": 7772,
      "hazırda": 7773,
      "tedavisinde": 7774,
      "zik": 7775,
      "mesin": 7776,
      "kılav": 7777,
      "uyuş": 7778,
      "ilgilendir": 7779,
      "tazminat": 7780,
      "Taraf": 7781,
      "77": 7782,
      "etmeleri": 7783,
      "kazı": 7784,
      "Fes": 7785,
      "ızda": 7786,
      "İletişim": 7787,
      "diğinizde": 7788,
      "Hızlı": 7789,
      "yazarak": 7790,
      "dekorasyon": 7791,
      "yahut": 7792,
      "ükleer": 7793,
      "hayatının": 7794,
      "indedir": 7795,
      "tansiyon": 7796,
      "Birinci": 7797,
      "kullanılacak": 7798,
      "wer": 7799,
      "faat": 7800,
      "eseri": 7801,
      "Bos": 7802,
      "iyorsanız": 7803,
      "Kent": 7804,
      "Pas": 7805,
      "Mat": 7806,
      "Vol": 7807,
      "ağırlıklı": 7808,
      "müşterilerimize": 7809,
      "02": 7810,
      "cor": 7811,
      "istasyon": 7812,
      "insanlarla": 7813,
      "Enerji": 7814,
      "ilirken": 7815,
      "Sına": 7816,
      "mazlar": 7817,
      "masaj": 7818,
      "sağlan": 7819,
      "bağlamda": 7820,
      "girmiş": 7821,
      "kort": 7822,
      "Stan": 7823,
      "dukça": 7824,
      "hacm": 7825,
      "Grup": 7826,
      "Kayıt": 7827,
      "Sak": 7828,
      "saray": 7829,
      "Ulusal": 7830,
      "59": 7831,
      "Örgü": 7832,
      "07": 7833,
      "felsef": 7834,
      "Park": 7835,
      "gösterebilir": 7836,
      "harcama": 7837,
      "Koronavirüs": 7838,
      "umartesi": 7839,
      "borsada": 7840,
      "Klinik": 7841,
      "Çeşit": 7842,
      "denen": 7843,
      "Değiş": 7844,
      "kimin": 7845,
      "Bilin": 7846,
      "taşımacılık": 7847,
      "yazan": 7848,
      "paylaştı": 7849,
      "Ras": 7850,
      "genetik": 7851,
      "kısmına": 7852,
      "Çanakkale": 7853,
      "iğe": 7854,
      "\",": 7855,
      "imkansız": 7856,
      "açığa": 7857,
      "küfür": 7858,
      "kadr": 7859,
      "oluşuyor": 7860,
      "ikamet": 7861,
      "eğitime": 7862,
      "izleyic": 7863,
      "ii": 7864,
      "değişir": 7865,
      "yapabilecek": 7866,
      "reç": 7867,
      "53": 7868,
      "Çağ": 7869,
      "AL": 7870,
      "kapak": 7871,
      "Sek": 7872,
      "all": 7873,
      "Eki": 7874,
      "riv": 7875,
      "Bunları": 7876,
      "öğrencilere": 7877,
      "saklıdır": 7878,
      "kanat": 7879,
      "başladım": 7880,
      "rız": 7881,
      "kullanıcılarına": 7882,
      "lezzetli": 7883,
      "plak": 7884,
      "ica": 7885,
      "depozit": 7886,
      "Bonus": 7887,
      "gizlilik": 7888,
      "ase": 7889,
      "banyo": 7890,
      "Boğaz": 7891,
      "işti": 7892,
      "enstrüman": 7893,
      "mağlu": 7894,
      "uygundur": 7895,
      "fırsatları": 7896,
      "konularında": 7897,
      "sorusuna": 7898,
      "biliyorlar": 7899,
      "Gizlilik": 7900,
      "ebilen": 7901,
      "değilse": 7902,
      "satılan": 7903,
      "Resmi": 7904,
      "sıralan": 7905,
      "kura": 7906,
      "Bizler": 7907,
      "uru": 7908,
      "muayene": 7909,
      "olmaksızın": 7910,
      "TR": 7911,
      "ED": 7912,
      "olduktan": 7913,
      "algorit": 7914,
      "lığıyla": 7915,
      "kötül": 7916,
      "gereksinim": 7917,
      "gösterilen": 7918,
      "sonradan": 7919,
      "kabl": 7920,
      "UR": 7921,
      "etkileşim": 7922,
      "Giriş": 7923,
      "elinden": 7924,
      "kavga": 7925,
      "iter": 7926,
      "post": 7927,
      "kendiniz": 7928,
      "geçebilirsiniz": 7929,
      "Kut": 7930,
      "Partisi": 7931,
      "filtr": 7932,
      "Amazon": 7933,
      "hesabına": 7934,
      "Fotoğraf": 7935,
      "bekliyoruz": 7936,
      "lon": 7937,
      "emri": 7938,
      "evler": 7939,
      "ramı": 7940,
      "Şen": 7941,
      "varlığın": 7942,
      "sitelerine": 7943,
      "lanırken": 7944,
      "haklarını": 7945,
      "başlıklı": 7946,
      "yarısı": 7947,
      "koordin": 7948,
      "dayanan": 7949,
      "sığ": 7950,
      "sada": 7951,
      "geçiren": 7952,
      "Not": 7953,
      "alacağınız": 7954,
      "laşmış": 7955,
      "erkeklerin": 7956,
      "vermez": 7957,
      "Hisse": 7958,
      "diğince": 7959,
      "cağından": 7960,
      "başlıca": 7961,
      "taşımaktadır": 7962,
      "Çelik": 7963,
      "kurumları": 7964,
      "anlaşılır": 7965,
      "riskleri": 7966,
      "yapacağı": 7967,
      "kullanımını": 7968,
      "vara": 7969,
      "statü": 7970,
      "damla": 7971,
      "ülkeleri": 7972,
      "İspanya": 7973,
      "süresince": 7974,
      "yaratıyor": 7975,
      "ilmek": 7976,
      "yaşamaya": 7977,
      "chain": 7978,
      "PC": 7979,
      "sayfada": 7980,
      "hol": 7981,
      "bunda": 7982,
      "bağırsak": 7983,
      "tının": 7984,
      "teknolojinin": 7985,
      "Sab": 7986,
      "ikiye": 7987,
      "Kalit": 7988,
      "karışık": 7989,
      "emize": 7990,
      "leyi": 7991,
      "dünyası": 7992,
      "sitemizi": 7993,
      "Kargo": 7994,
      "ami": 7995,
      "ördüncü": 7996,
      "mayacaktır": 7997,
      "option": 7998,
      "Kayseri": 7999,
      "samimi": 8000,
      "istiyan": 8001,
      "bileşen": 8002,
      "York": 8003,
      "Kaynak": 8004,
      "seçilen": 8005,
      "Onların": 8006,
      "falan": 8007,
      "hastaların": 8008,
      "benimle": 8009,
      "attığı": 8010,
      "peryal": 8011,
      "bastır": 8012,
      "izah": 8013,
      "rag": 8014,
      "tiya": 8015,
      "annesi": 8016,
      "eleriyle": 8017,
      "dikkati": 8018,
      "takibi": 8019,
      "gereğ": 8020,
      "değerler": 8021,
      "dönemine": 8022,
      "mol": 8023,
      "İtal": 8024,
      "68": 8025,
      "Uk": 8026,
      "Ses": 8027,
      "operatif": 8028,
      "Kanal": 8029,
      "übü": 8030,
      "verilmiştir": 8031,
      "tarafta": 8032,
      "tarihsel": 8033,
      "öportaj": 8034,
      "piyasaları": 8035,
      "gul": 8036,
      "Üzer": 8037,
      "çalışa": 8038,
      "gidecek": 8039,
      "iyorsunuz": 8040,
      "projenin": 8041,
      "tarihten": 8042,
      "oynayan": 8043,
      "yiy": 8044,
      "ülen": 8045,
      "Sivas": 8046,
      "ümin": 8047,
      "tersine": 8048,
      "Onu": 8049,
      "irası": 8050,
      "miyim": 8051,
      "neye": 8052,
      "Mez": 8053,
      "ilyon": 8054,
      "Hik": 8055,
      "Vatandaş": 8056,
      "obj": 8057,
      "konuyla": 8058,
      "67": 8059,
      "pasa": 8060,
      "filmin": 8061,
      "devleti": 8062,
      "basınç": 8063,
      "iktid": 8064,
      "solunum": 8065,
      "idare": 8066,
      "makyaj": 8067,
      "Sık": 8068,
      "yapıldığını": 8069,
      "station": 8070,
      "sevgili": 8071,
      "ilişkisi": 8072,
      "onlardan": 8073,
      "yasaktır": 8074,
      "dezavantaj": 8075,
      "konusudur": 8076,
      "kral": 8077,
      "dediği": 8078,
      "Yargı": 8079,
      "ketbol": 8080,
      "logo": 8081,
      "başlayarak": 8082,
      "Buradaki": 8083,
      "siteniz": 8084,
      "adresini": 8085,
      "deposu": 8086,
      "dolandırıcı": 8087,
      "etmesini": 8088,
      "Sürekli": 8089,
      "sarf": 8090,
      "2007": 8091,
      "peynir": 8092,
      "markası": 8093,
      "döndü": 8094,
      "araçların": 8095,
      "ahla": 8096,
      "birinde": 8097,
      "bilecektir": 8098,
      "sayfasında": 8099,
      "ilaçlar": 8100,
      "takvim": 8101,
      "bük": 8102,
      "terim": 8103,
      "mamaktadır": 8104,
      "lerimizle": 8105,
      "pi": 8106,
      "acaba": 8107,
      "farklıdır": 8108,
      "swap": 8109,
      "Meta": 8110,
      "fos": 8111,
      "abol": 8112,
      "büyüyen": 8113,
      "perakende": 8114,
      "anların": 8115,
      "İtalyan": 8116,
      "verdiğiniz": 8117,
      "İr": 8118,
      "çisi": 8119,
      "Telefon": 8120,
      "kalmaz": 8121,
      "ladım": 8122,
      "Yara": 8123,
      "hepimiz": 8124,
      "yavru": 8125,
      "üyelerine": 8126,
      "your": 8127,
      "yazarı": 8128,
      "ipuç": 8129,
      "karşılamak": 8130,
      "YouTu": 8131,
      "CD": 8132,
      "özelliklere": 8133,
      "çalışanların": 8134,
      "ömr": 8135,
      "yazdığı": 8136,
      "Birkaç": 8137,
      "sinyalleri": 8138,
      "coş": 8139,
      "kazanmaya": 8140,
      "özelliğini": 8141,
      "şair": 8142,
      "gergin": 8143,
      "severlerin": 8144,
      "inat": 8145,
      "ınıp": 8146,
      "İdar": 8147,
      "onar": 8148,
      "uzaklaştır": 8149,
      "Sİ": 8150,
      "ID": 8151,
      "oradan": 8152,
      "internette": 8153,
      "Ünlü": 8154,
      "ros": 8155,
      "çalışanları": 8156,
      "Yazar": 8157,
      "teklifi": 8158,
      "görevini": 8159,
      "likten": 8160,
      "parit": 8161,
      "sekiz": 8162,
      "Tec": 8163,
      "ücretli": 8164,
      "52": 8165,
      "tiy": 8166,
      "oraya": 8167,
      "girişi": 8168,
      "fli": 8169,
      "Kuran": 8170,
      "verilmiş": 8171,
      "Hayvan": 8172,
      "öğrencileri": 8173,
      "kaşığı": 8174,
      "Köp": 8175,
      "jik": 8176,
      "Müşteriler": 8177,
      "rica": 8178,
      "motiv": 8179,
      "kazanmanın": 8180,
      "görevl": 8181,
      "işlerini": 8182,
      "çıkabilir": 8183,
      "Platform": 8184,
      "ydi": 8185,
      "dönük": 8186,
      "kaydeden": 8187,
      "kurma": 8188,
      "merdiven": 8189,
      "kısal": 8190,
      "yazılımı": 8191,
      "Kurumu": 8192,
      "yollarını": 8193,
      "oyuncak": 8194,
      "kuruş": 8195,
      "arsa": 8196,
      "gerekebilir": 8197,
      "Değer": 8198,
      "gerçekleşir": 8199,
      "tamiri": 8200,
      "seviyeleri": 8201,
      "yir": 8202,
      "yang": 8203,
      "kapatı": 8204,
      "eminer": 8205,
      "yapılandır": 8206,
      "Başkanlığı": 8207,
      "girip": 8208,
      "Hayır": 8209,
      "verdim": 8210,
      "artarak": 8211,
      "tıklayınız": 8212,
      "dışından": 8213,
      "Geliş": 8214,
      "nefret": 8215,
      "kanalı": 8216,
      "ölen": 8217,
      "ildiğini": 8218,
      "Ela": 8219,
      "Profesyonel": 8220,
      "görevlendir": 8221,
      "leşen": 8222,
      "çalışmaktadır": 8223,
      "dinin": 8224,
      "wn": 8225,
      "şekillendir": 8226,
      "albüm": 8227,
      "ndeki": 8228,
      "araj": 8229,
      "lıyorum": 8230,
      "yaşadı": 8231,
      "gereksiz": 8232,
      "kaleme": 8233,
      "cihazı": 8234,
      "Ortak": 8235,
      "detaylar": 8236,
      "çiğ": 8237,
      "vasıtasıyla": 8238,
      "lenerek": 8239,
      "İmparator": 8240,
      "ME": 8241,
      "yapıştır": 8242,
      "Toplam": 8243,
      "tema": 8244,
      "öneririz": 8245,
      "bebeğin": 8246,
      "bilmeleri": 8247,
      "durumdur": 8248,
      "kupon": 8249,
      "kesme": 8250,
      "başladık": 8251,
      "Çevre": 8252,
      "tesisat": 8253,
      "istedim": 8254,
      "64": 8255,
      "slogan": 8256,
      "Festival": 8257,
      "halkının": 8258,
      "gördüğünüz": 8259,
      "çıkardı": 8260,
      "Cil": 8261,
      "Danış": 8262,
      "yukarıdaki": 8263,
      "katıldı": 8264,
      "şok": 8265,
      "Hastanesi": 8266,
      "bistan": 8267,
      "hizmetlerin": 8268,
      "boğaz": 8269,
      "koleksiyon": 8270,
      "ismini": 8271,
      "yıllarında": 8272,
      "Şahin": 8273,
      "kader": 8274,
      "ümüzün": 8275,
      "ıyorsunuz": 8276,
      "Adam": 8277,
      "olurdu": 8278,
      "tüketimi": 8279,
      "milliyet": 8280,
      "kazançlar": 8281,
      "bölümünü": 8282,
      "gözler": 8283,
      "rejim": 8284,
      "açıldı": 8285,
      "alıyoruz": 8286,
      "bulgu": 8287,
      "oynana": 8288,
      "Faz": 8289,
      "efend": 8290,
      "tadı": 8291,
      "yazmak": 8292,
      "bölgesel": 8293,
      "ayrıcalık": 8294,
      "çalışmaların": 8295,
      "kazanım": 8296,
      "İla": 8297,
      "yollar": 8298,
      "kültürü": 8299,
      "kişileri": 8300,
      "rezervasyon": 8301,
      "getirilen": 8302,
      "ptom": 8303,
      "Tal": 8304,
      "cezai": 8305,
      "kadını": 8306,
      "ittifak": 8307,
      "liraya": 8308,
      "fın": 8309,
      "04": 8310,
      "Pap": 8311,
      "isteriz": 8312,
      "dezen": 8313,
      "isyan": 8314,
      "landığında": 8315,
      "merkezine": 8316,
      "Tasarım": 8317,
      "inter": 8318,
      "He": 8319,
      "ilgisini": 8320,
      "verirken": 8321,
      "iyisi": 8322,
      "dinde": 8323,
      "vurguladı": 8324,
      "PKK": 8325,
      "ebiliriz": 8326,
      "stop": 8327,
      "gürül": 8328,
      "cazip": 8329,
      "ocak": 8330,
      "hissi": 8331,
      "edemez": 8332,
      "bbet": 8333,
      "sürecin": 8334,
      "yağlı": 8335,
      "suya": 8336,
      "meşhur": 8337,
      "amaçlarla": 8338,
      "Sayı": 8339,
      "böbrek": 8340,
      "hastaneye": 8341,
      "800": 8342,
      "Otel": 8343,
      "zihn": 8344,
      "MAD": 8345,
      "ilip": 8346,
      "yatırımları": 8347,
      "şifre": 8348,
      "beklemek": 8349,
      "pap": 8350,
      "büro": 8351,
      "yetki": 8352,
      "açtığı": 8353,
      "yararlanmak": 8354,
      "dışarıdan": 8355,
      "uyuşturucu": 8356,
      "üste": 8357,
      "Sonrasında": 8358,
      "Esa": 8359,
      "unuzda": 8360,
      "işine": 8361,
      "mart": 8362,
      "viç": 8363,
      "alıntı": 8364,
      "galibiyet": 8365,
      "BB": 8366,
      "ilah": 8367,
      "tlar": 8368,
      "bakmak": 8369,
      "bağlantılı": 8370,
      "Olay": 8371,
      "gat": 8372,
      "Hoca": 8373,
      "ebileceğiniz": 8374,
      "konaklama": 8375,
      "olduğunuzu": 8376,
      "Karak": 8377,
      "ailenin": 8378,
      "mesela": 8379,
      "mektir": 8380,
      "söyley": 8381,
      "ödeye": 8382,
      "atarak": 8383,
      "sorusu": 8384,
      "şüphesiz": 8385,
      "kılan": 8386,
      "olanağı": 8387,
      "lata": 8388,
      "göm": 8389,
      "kronik": 8390,
      "land": 8391,
      "Ekonomik": 8392,
      "şehirler": 8393,
      "dry": 8394,
      "gerçekleştirebilirsiniz": 8395,
      "parçaları": 8396,
      "tarihinin": 8397,
      "ümüze": 8398,
      "güvenle": 8399,
      "Çu": 8400,
      "sayfası": 8401,
      "verebilirsiniz": 8402,
      "İsa": 8403,
      "Bakanlık": 8404,
      "verdiğini": 8405,
      "cenaz": 8406,
      "sebze": 8407,
      "Diz": 8408,
      "riyet": 8409,
      "koşullar": 8410,
      "çır": 8411,
      "üniversiteler": 8412,
      "54": 8413,
      "ora": 8414,
      "kısmen": 8415,
      "tro": 8416,
      "edilmez": 8417,
      "cook": 8418,
      "eydi": 8419,
      "yapacağız": 8420,
      "vit": 8421,
      "Sitede": 8422,
      "milletin": 8423,
      "yükümlü": 8424,
      "YouTube": 8425,
      "Ücretsiz": 8426,
      "!..": 8427,
      "fiziki": 8428,
      "ekimi": 8429,
      "raporu": 8430,
      "ju": 8431,
      "öğrenim": 8432,
      "Günde": 8433,
      "metik": 8434,
      "kuvvetli": 8435,
      "Vide": 8436,
      "BA": 8437,
      "fiyatların": 8438,
      "lamıştır": 8439,
      "Trend": 8440,
      "verip": 8441,
      "makul": 8442,
      "köşe": 8443,
      "keskin": 8444,
      "edebilmek": 8445,
      "işlevsel": 8446,
      "belirtileri": 8447,
      "Soy": 8448,
      "bakiy": 8449,
      "birlikt": 8450,
      "biyo": 8451,
      "Eb": 8452,
      "çayı": 8453,
      "şehirde": 8454,
      "yatırımcılara": 8455,
      "görmeye": 8456,
      "sokağa": 8457,
      "sürecine": 8458,
      "Tut": 8459,
      "MADDE": 8460,
      "sözlerini": 8461,
      "yürürlüğe": 8462,
      "etmiyor": 8463,
      "sıralama": 8464,
      "toplama": 8465,
      "Mağ": 8466,
      "zordur": 8467,
      "hesabınız": 8468,
      "yazıda": 8469,
      "Kış": 8470,
      "işlemin": 8471,
      "Suç": 8472,
      "epey": 8473,
      "Turk": 8474,
      "ayarak": 8475,
      "dular": 8476,
      "Modern": 8477,
      "sürüş": 8478,
      "sözcük": 8479,
      "Gazete": 8480,
      "heykel": 8481,
      "ladığını": 8482,
      "müşterilerimizin": 8483,
      "konumlandır": 8484,
      "Market": 8485,
      "tev": 8486,
      "Sizler": 8487,
      "hts": 8488,
      "81": 8489,
      "zah": 8490,
      "Şa": 8491,
      "getirilmesi": 8492,
      "Ja": 8493,
      "Rah": 8494,
      "keyfini": 8495,
      "görüldüğü": 8496,
      "):": 8497,
      "istemek": 8498,
      "CI": 8499,
      "komut": 8500,
      "Qu": 8501,
      "geçmesi": 8502,
      "pres": 8503,
      "uza": 8504,
      "lenmektedir": 8505,
      "hesabından": 8506,
      "Motor": 8507,
      "Vade": 8508,
      "bulunmayan": 8509,
      "verilerine": 8510,
      "Tür": 8511,
      "dudak": 8512,
      "müslüman": 8513,
      "ücretleri": 8514,
      "OP": 8515,
      "edilmesini": 8516,
      "inanıyorum": 8517,
      "Fo": 8518,
      "tamamladı": 8519,
      "Hüseyin": 8520,
      "Gelecek": 8521,
      "olmasın": 8522,
      "noktasına": 8523,
      "kurumun": 8524,
      "etkilerini": 8525,
      "uzanan": 8526,
      "John": 8527,
      "Kaldır": 8528,
      "bahisleri": 8529,
      "izola": 8530,
      "ure": 8531,
      "ebileceği": 8532,
      "mic": 8533,
      "projeleri": 8534,
      "ötesinde": 8535,
      "izmi": 8536,
      "çeker": 8537,
      "yürütülen": 8538,
      "kirala": 8539,
      "farkına": 8540,
      "inizdeki": 8541,
      "mıyorum": 8542,
      "Ail": 8543,
      "izde": 8544,
      "Kore": 8545,
      "aşık": 8546,
      "Fakül": 8547,
      "ceph": 8548,
      "etmeyen": 8549,
      "çılar": 8550,
      "Yür": 8551,
      "unutma": 8552,
      "isteği": 8553,
      "GB": 8554,
      "ilgisi": 8555,
      "ayının": 8556,
      "nöbet": 8557,
      "çilik": 8558,
      "motoru": 8559,
      "emeyecek": 8560,
      "buğday": 8561,
      "denge": 8562,
      "evrim": 8563,
      "duyan": 8564,
      "Fik": 8565,
      "iyilik": 8566,
      "yaratmak": 8567,
      "dilik": 8568,
      "oranının": 8569,
      "Devleti": 8570,
      "zzi": 8571,
      "yüzünde": 8572,
      "belirlenmiş": 8573,
      "yatan": 8574,
      "kari": 8575,
      "ayna": 8576,
      "röportaj": 8577,
      "değiştirme": 8578,
      "klinik": 8579,
      "tespiti": 8580,
      "ebilirler": 8581,
      "azaltmak": 8582,
      "yönetici": 8583,
      "nihayet": 8584,
      "Dağ": 8585,
      "yorumu": 8586,
      "ckchain": 8587,
      "elden": 8588,
      "Tip": 8589,
      "değerinin": 8590,
      "medim": 8591,
      "oluşabilecek": 8592,
      "düşünüyoruz": 8593,
      "atöly": 8594,
      "pır": 8595,
      "açarak": 8596,
      "yapılacaktır": 8597,
      "bahsede": 8598,
      "elbis": 8599,
      "açıklanan": 8600,
      "lanamaz": 8601,
      "iin": 8602,
      "böcek": 8603,
      "sağlanmaktadır": 8604,
      "kullanışlı": 8605,
      "İnşa": 8606,
      "ilingir": 8607,
      "hızlıca": 8608,
      "ayıp": 8609,
      "edeceği": 8610,
      "yaşamı": 8611,
      "izleyen": 8612,
      "benden": 8613,
      "reddet": 8614,
      "ref": 8615,
      "geçmişte": 8616,
      "use": 8617,
      "girecek": 8618,
      "Galaxy": 8619,
      "Ale": 8620,
      "isimler": 8621,
      "sözler": 8622,
      "hizmetin": 8623,
      "omur": 8624,
      "belgeleri": 8625,
      "latör": 8626,
      "şet": 8627,
      "yönü": 8628,
      "Ola": 8629,
      "muhalefet": 8630,
      "kullandığınız": 8631,
      "koç": 8632,
      "lüğünü": 8633,
      "teknolojileri": 8634,
      "Kaya": 8635,
      "şen": 8636,
      "İlgili": 8637,
      "Dis": 8638,
      "renin": 8639,
      "oranla": 8640,
      "yaşamış": 8641,
      "ülmüş": 8642,
      "Emir": 8643,
      "haliyle": 8644,
      "yayımlanan": 8645,
      "ayrılır": 8646,
      "dr": 8647,
      "barındıran": 8648,
      "görüldü": 8649,
      "zığ": 8650,
      "sistemler": 8651,
      "Polis": 8652,
      "sisteminde": 8653,
      "sakat": 8654,
      "uel": 8655,
      "karşınıza": 8656,
      "çal": 8657,
      "Sol": 8658,
      "çözümleri": 8659,
      "Bulgar": 8660,
      "diyorum": 8661,
      "koya": 8662,
      "getirecek": 8663,
      "bırakın": 8664,
      "Marmara": 8665,
      "bölgedeki": 8666,
      "kilat": 8667,
      "ked": 8668,
      "razzi": 8669,
      "sh": 8670,
      "miras": 8671,
      "leştirilmiş": 8672,
      "bardak": 8673,
      "şimdiye": 8674,
      "Zen": 8675,
      "Ödül": 8676,
      "çalışanlar": 8677,
      "Abdullah": 8678,
      "herkesi": 8679,
      "yazıları": 8680,
      "edilmesine": 8681,
      "derhal": 8682,
      "rayna": 8683,
      "akciğer": 8684,
      "mecra": 8685,
      "yatı": 8686,
      "sayıları": 8687,
      "anlatım": 8688,
      "garantisi": 8689,
      "Aşı": 8690,
      "tiş": 8691,
      "diyabet": 8692,
      "ojistik": 8693,
      "Kullanım": 8694,
      "soruların": 8695,
      "gençler": 8696,
      "hereum": 8697,
      "iğin": 8698,
      "akışı": 8699,
      "hayati": 8700,
      "cıları": 8701,
      "testo": 8702,
      "değilim": 8703,
      "Emniyet": 8704,
      "Pazartesi": 8705,
      "leridir": 8706,
      "Lib": 8707,
      "kurumu": 8708,
      "şamba": 8709,
      "Kav": 8710,
      "sata": 8711,
      "Tedav": 8712,
      "bende": 8713,
      "amaya": 8714,
      "51": 8715,
      "maye": 8716,
      "Cad": 8717,
      "Pi": 8718,
      "Webrazzi": 8719,
      "Proje": 8720,
      "verilere": 8721,
      "semt": 8722,
      "sitesinden": 8723,
      "fiyatlarla": 8724,
      "Ala": 8725,
      "landıktan": 8726,
      "bulunabilir": 8727,
      "tınız": 8728,
      "Kırmızı": 8729,
      "alem": 8730,
      "stit": 8731,
      "birbirlerine": 8732,
      "sağlayabilir": 8733,
      "geçecek": 8734,
      "eceğine": 8735,
      "SK": 8736,
      "Boş": 8737,
      "anlatı": 8738,
      "lazer": 8739,
      "bulunmakta": 8740,
      "fiyatlarının": 8741,
      "edilecektir": 8742,
      "menkul": 8743,
      "kredisi": 8744,
      "lanmaz": 8745,
      "lüğüne": 8746,
      "zihinsel": 8747,
      "kavuştur": 8748,
      "ano": 8749,
      "Sch": 8750,
      "kadınlara": 8751,
      "kitle": 8752,
      "alındığı": 8753,
      "alındığında": 8754,
      "cemaat": 8755,
      "görmez": 8756,
      "yaşadıkları": 8757,
      "takımın": 8758,
      "şembe": 8759,
      "yemeği": 8760,
      "trilyon": 8761,
      "Gam": 8762,
      "görevleri": 8763,
      "yüzyılda": 8764,
      "doğrusu": 8765,
      "Yoğ": 8766,
      "çileri": 8767,
      "yır": 8768,
      "ınan": 8769,
      "semptom": 8770,
      "mesajı": 8771,
      "yüklü": 8772,
      "çekirdek": 8773,
      "çağdaş": 8774,
      "asıyla": 8775,
      "gerilim": 8776,
      "arkadaşları": 8777,
      "yürek": 8778,
      "Sov": 8779,
      "fazladır": 8780,
      "şimdiden": 8781,
      "otu": 8782,
      "ick": 8783,
      "Kanada": 8784,
      "olata": 8785,
      "cinin": 8786,
      "iliğinden": 8787,
      "bankacılık": 8788,
      "edeceğini": 8789,
      "faaliyetlerini": 8790,
      "tanıma": 8791,
      "geçtiği": 8792,
      "ayrılan": 8793,
      "kısıtlama": 8794,
      "kitapları": 8795,
      "onim": 8796,
      "sonlandır": 8797,
      "tina": 8798,
      "havalan": 8799,
      "dolaylı": 8800,
      "seyret": 8801,
      "mevzuata": 8802,
      "los": 8803,
      "Tav": 8804,
      "2023": 8805,
      "kedi": 8806,
      "tarafa": 8807,
      "Erzurum": 8808,
      "atom": 8809,
      "İlç": 8810,
      "Kitab": 8811,
      "cüme": 8812,
      "iseniz": 8813,
      "Sistemi": 8814,
      "Fiz": 8815,
      "yanıl": 8816,
      "alda": 8817,
      "Star": 8818,
      "memelidir": 8819,
      "mutlak": 8820,
      "durumları": 8821,
      "gerçekçi": 8822,
      "anlata": 8823,
      "faktörler": 8824,
      "yaşar": 8825,
      "siyum": 8826,
      "tanır": 8827,
      "etkileyici": 8828,
      "Bayram": 8829,
      "Ukrayna": 8830,
      "varan": 8831,
      "kolaylık": 8832,
      "Sağlıklı": 8833,
      "yaşamın": 8834,
      "aro": 8835,
      "unvan": 8836,
      "dökü": 8837,
      "birisidir": 8838,
      "sizde": 8839,
      "niye": 8840,
      "biçimi": 8841,
      "görünce": 8842,
      "evleri": 8843,
      "yaratı": 8844,
      "çoğunluğu": 8845,
      "ple": 8846,
      "nitelendir": 8847,
      "tırman": 8848,
      "acağınız": 8849,
      "tarifi": 8850,
      "üzüm": 8851,
      "kategorisinde": 8852,
      "Sovyet": 8853,
      "nü": 8854,
      "Karar": 8855,
      "gözet": 8856,
      "2006": 8857,
      "gümrük": 8858,
      "sınırı": 8859,
      "yaşadığımız": 8860,
      "kimseye": 8861,
      "bam": 8862,
      "tüken": 8863,
      "meyecektir": 8864,
      "pası": 8865,
      "istisna": 8866,
      "tıkanık": 8867,
      "yanınızda": 8868,
      "hesaplar": 8869,
      "tavuk": 8870,
      "Kaç": 8871,
      "zira": 8872,
      "lamıyor": 8873,
      "Elazığ": 8874,
      "Kocaeli": 8875,
      "unus": 8876,
      "paraya": 8877,
      "makineleri": 8878,
      "ederse": 8879,
      "berg": 8880,
      "ileride": 8881,
      "müzaker": 8882,
      "oruç": 8883,
      "güvence": 8884,
      "boyutlu": 8885,
      "bazında": 8886,
      "yüzünü": 8887,
      "Aşağıda": 8888,
      "kurallarına": 8889,
      "sayısız": 8890,
      "öncül": 8891,
      "liman": 8892,
      "Fu": 8893,
      "kitaplar": 8894,
      "eğinin": 8895,
      "adayı": 8896,
      "başlandı": 8897,
      "anlatmak": 8898,
      "Avustr": 8899,
      "etmeyin": 8900,
      "alacağı": 8901,
      "rolü": 8902,
      "Evden": 8903,
      "AP": 8904,
      "Word": 8905,
      "sk": 8906,
      "Gol": 8907,
      "larsa": 8908,
      "kablo": 8909,
      "ct": 8910,
      "aksi": 8911,
      "sergilen": 8912,
      "Türkmen": 8913,
      "taşına": 8914,
      "yatay": 8915,
      "bileceksiniz": 8916,
      "yapmalı": 8917,
      "dükkan": 8918,
      "dor": 8919,
      "larınızla": 8920,
      "cevabını": 8921,
      "Güvenilir": 8922,
      "Dikkat": 8923,
      "Endek": 8924,
      "cül": 8925,
      "ebilmesi": 8926,
      "ladıkları": 8927,
      "Stratej": 8928,
      "Aj": 8929,
      "ihtiyacını": 8930,
      "yerlerinde": 8931,
      "deyişle": 8932,
      "ledikleri": 8933,
      "Air": 8934,
      "katılımı": 8935,
      "luğuna": 8936,
      "bulabilir": 8937,
      "Insig": 8938,
      "laşan": 8939,
      "işlerin": 8940,
      "toplanan": 8941,
      "dayanarak": 8942,
      "but": 8943,
      "SPK": 8944,
      "ülkeden": 8945,
      "aktaran": 8946,
      "besi": 8947,
      "sürdüren": 8948,
      "menfaat": 8949,
      "kişehir": 8950,
      "yakış": 8951,
      "Görüş": 8952,
      "Gıda": 8953,
      "oğul": 8954,
      "direktör": 8955,
      "remi": 8956,
      "pür": 8957,
      "Açı": 8958,
      "uydur": 8959,
      "bıraktı": 8960,
      "bakarak": 8961,
      "nadir": 8962,
      "denize": 8963,
      "rivayet": 8964,
      "rulet": 8965,
      "aldıktan": 8966,
      "problemleri": 8967,
      "sözlerine": 8968,
      "Tr": 8969,
      "sensör": 8970,
      "sorunlara": 8971,
      "öneriler": 8972,
      "sanırım": 8973,
      "Oyuncu": 8974,
      "pul": 8975,
      "vermeyi": 8976,
      "my": 8977,
      "pazarı": 8978,
      "karn": 8979,
      "yapının": 8980,
      "doğrultuda": 8981,
      "Engel": 8982,
      "sitemize": 8983,
      "Nakliyat": 8984,
      "sakın": 8985,
      "Hanım": 8986,
      "slan": 8987,
      "spon": 8988,
      "Fx": 8989,
      "boyutu": 8990,
      "doğalgaz": 8991,
      "sahil": 8992,
      "Marka": 8993,
      "ziyaretçi": 8994,
      "paranızı": 8995,
      "lemesine": 8996,
      "Hakkari": 8997,
      "lisanslı": 8998,
      "opsiyonlar": 8999,
      "liyorum": 9000,
      "güvenliğini": 9001,
      "Teknoloj": 9002,
      "FX": 9003,
      "başardı": 9004,
      "edelim": 9005,
      "78": 9006,
      "sevdik": 9007,
      "menü": 9008,
      "özenle": 9009,
      "fırın": 9010,
      "kep": 9011,
      "Otomo": 9012,
      "seminer": 9013,
      "zamanın": 9014,
      "fx": 9015,
      "oluşturmaktadır": 9016,
      "odaklan": 9017,
      "sebz": 9018,
      "mekanik": 9019,
      "tırnak": 9020,
      "AD": 9021,
      "mızda": 9022,
      "Sınır": 9023,
      "bölgeler": 9024,
      "gençlerin": 9025,
      "kurduğu": 9026,
      "yurtdışı": 9027,
      "katılmak": 9028,
      "haram": 9029,
      "gerçekleştiren": 9030,
      "maddeleri": 9031,
      "farkındalık": 9032,
      "kazanmış": 9033,
      "opsiyonu": 9034,
      "ödün": 9035,
      "Sını": 9036,
      "data": 9037,
      "düzeni": 9038,
      "Özgür": 9039,
      "sağlığını": 9040,
      "doların": 9041,
      "manzara": 9042,
      "üyelerinin": 9043,
      "emperyal": 9044,
      "toplantısında": 9045,
      "trav": 9046,
      "isimleri": 9047,
      "eğitimler": 9048,
      "Saf": 9049,
      "seviyesini": 9050,
      "talebinde": 9051,
      "laboratuvar": 9052,
      "raz": 9053,
      "buluyor": 9054,
      "okuyan": 9055,
      "seviyorum": 9056,
      "meşgul": 9057,
      "açıklamalarda": 9058,
      "değerlendirmeler": 9059,
      "müth": 9060,
      "uygulamasını": 9061,
      "mesidir": 9062,
      "Orada": 9063,
      "madığını": 9064,
      "hukuka": 9065,
      "Sanal": 9066,
      "ümüzü": 9067,
      "fırtına": 9068,
      "işlemlerde": 9069,
      "Ağır": 9070,
      "acaksınız": 9071,
      "olmalısınız": 9072,
      "Tim": 9073,
      "butonuna": 9074,
      "gelecektir": 9075,
      "modül": 9076,
      "katliam": 9077,
      "Üçüncü": 9078,
      "hastalıklar": 9079,
      "şüpheli": 9080,
      "Meslek": 9081,
      "how": 9082,
      "vat": 9083,
      "tehlike": 9084,
      "meclis": 9085,
      "yaptığım": 9086,
      "sayısına": 9087,
      "Mor": 9088,
      "suyla": 9089,
      "kanama": 9090,
      "üyü": 9091,
      "ilme": 9092,
      "alanın": 9093,
      "2005": 9094,
      "Sun": 9095,
      "kararları": 9096,
      "seçerek": 9097,
      "katıla": 9098,
      "Roman": 9099,
      "kuruluşları": 9100,
      "Çeşitli": 9101,
      "hangisi": 9102,
      "enj": 9103,
      "verdikleri": 9104,
      "Emre": 9105,
      "umur": 9106,
      "you": 9107,
      "asır": 9108,
      "Eskişehir": 9109,
      "görevli": 9110,
      "ışığında": 9111,
      "kanaat": 9112,
      "geçtikçe": 9113,
      "burç": 9114,
      "feran": 9115,
      "haberlerin": 9116,
      "olayın": 9117,
      "bakımdan": 9118,
      "Konuş": 9119,
      "Yasa": 9120,
      "soya": 9121,
      "şarap": 9122,
      "sünü": 9123,
      "oluyoruz": 9124,
      "Asker": 9125,
      "buki": 9126,
      "St": 9127,
      "İnan": 9128,
      "tore": 9129,
      "gerekenler": 9130,
      "MB": 9131,
      "fakir": 9132,
      "amaçlar": 9133,
      "vesile": 9134,
      "prensip": 9135,
      "hocam": 9136,
      "dünyasına": 9137,
      "yetmez": 9138,
      "düşünüyorsanız": 9139,
      "tasarı": 9140,
      "Yusu": 9141,
      "Ethereum": 9142,
      "Japon": 9143,
      "Playstation": 9144,
      "veriliyor": 9145,
      "Bölgesi": 9146,
      "Uygun": 9147,
      "kurallara": 9148,
      "başara": 9149,
      "ajans": 9150,
      "Insights": 9151,
      "ruhsal": 9152,
      "mama": 9153,
      "ederseniz": 9154,
      "tered": 9155,
      "çekerek": 9156,
      "batar": 9157,
      "biliniyor": 9158,
      "Mi": 9159,
      "hakkak": 9160,
      "dakikalık": 9161,
      "deta": 9162,
      "yapılmasını": 9163,
      "Kum": 9164,
      "gerektiğine": 9165,
      "Ligi": 9166,
      "arar": 9167,
      "lanmasının": 9168,
      "girdiği": 9169,
      "konsept": 9170,
      "indi": 9171,
      "açıp": 9172,
      "biriktir": 9173,
      "olacağına": 9174,
      "gelmeye": 9175,
      "maçında": 9176,
      "emiş": 9177,
      "sApp": 9178,
      "faydalan": 9179,
      "yapılırken": 9180,
      "çıkmıştır": 9181,
      "Aşk": 9182,
      "kurtulmak": 9183,
      "vo": 9184,
      "tahta": 9185,
      "tahsil": 9186,
      "mazlık": 9187,
      "ayına": 9188,
      "yim": 9189,
      "yıllarca": 9190,
      "köklü": 9191,
      "BTC": 9192,
      "katıldığı": 9193,
      "Yusuf": 9194,
      "çalışmalara": 9195,
      "önder": 9196,
      "Sem": 9197,
      "Teş": 9198,
      "tuta": 9199,
      "küm": 9200,
      "edinmek": 9201,
      "bileceğine": 9202,
      "kullanıyoruz": 9203,
      "talepleri": 9204,
      "Yardımcısı": 9205,
      "kılı": 9206,
      "Del": 9207,
      "hücre": 9208,
      "Kerim": 9209,
      "adap": 9210,
      "diliyorum": 9211,
      "kazançlı": 9212,
      "tabl": 9213,
      "uzmanlar": 9214,
      "fiyatın": 9215,
      "giderken": 9216,
      "düzenlemeler": 9217,
      "yaşta": 9218,
      "ortaklık": 9219,
      "yaptırım": 9220,
      "feder": 9221,
      "Satın": 9222,
      "müthiş": 9223,
      "bildiğimiz": 9224,
      "kapsayan": 9225,
      "nükleer": 9226,
      "Networkdry": 9227,
      "Saray": 9228,
      "denli": 9229,
      "eriner": 9230,
      "ilemez": 9231,
      "depresyon": 9232,
      "bozukluğu": 9233,
      "nor": 9234,
      "kasaba": 9235,
      "Efendimiz": 9236,
      "arayın": 9237,
      "ES": 9238,
      "hiz": 9239,
      "Mel": 9240,
      "oyuncuların": 9241,
      "merkezleri": 9242,
      "yapmakta": 9243,
      "72": 9244,
      "odu": 9245,
      "nedenleri": 9246,
      "adamın": 9247,
      "çalışmanın": 9248,
      "sorunlarını": 9249,
      "karışım": 9250,
      "nci": 9251,
      "filmleri": 9252,
      "bereket": 9253,
      "burcu": 9254,
      "Trabzonspor": 9255,
      "sesli": 9256,
      "Gece": 9257,
      "suçlu": 9258,
      "İlçe": 9259,
      "garip": 9260,
      "Ermeni": 9261,
      "elli": 9262,
      "kendisinden": 9263,
      "aklım": 9264,
      "gözü": 9265,
      "bırakmak": 9266,
      "birinden": 9267,
      "arttırmak": 9268,
      "Ortadoğu": 9269,
      "olanları": 9270,
      "uğla": 9271,
      "ailesinin": 9272,
      "Katılım": 9273,
      "kütüphan": 9274,
      "konforlu": 9275,
      "danın": 9276,
      "My": 9277,
      "neyi": 9278,
      "iret": 9279,
[...]
